unsigned char model_optimized_tflite[] = {
  0x20, 0x00, 0x00, 0x00, 0x54, 0x46, 0x4c, 0x33, 0x00, 0x00, 0x00, 0x00,
  0x14, 0x00, 0x20, 0x00, 0x1c, 0x00, 0x18, 0x00, 0x14, 0x00, 0x10, 0x00,
  0x0c, 0x00, 0x00, 0x00, 0x08, 0x00, 0x04, 0x00, 0x14, 0x00, 0x00, 0x00,
  0x1c, 0x00, 0x00, 0x00, 0x88, 0x00, 0x00, 0x00, 0xe0, 0x00, 0x00, 0x00,
  0xa0, 0x54, 0x00, 0x00, 0xb0, 0x54, 0x00, 0x00, 0x7c, 0x66, 0x00, 0x00,
  0x03, 0x00, 0x00, 0x00, 0x01, 0x00, 0x00, 0x00, 0x04, 0x00, 0x00, 0x00,
  0x62, 0xaa, 0xff, 0xff, 0x0c, 0x00, 0x00, 0x00, 0x1c, 0x00, 0x00, 0x00,
  0x3c, 0x00, 0x00, 0x00, 0x0f, 0x00, 0x00, 0x00, 0x73, 0x65, 0x72, 0x76,
  0x69, 0x6e, 0x67, 0x5f, 0x64, 0x65, 0x66, 0x61, 0x75, 0x6c, 0x74, 0x00,
  0x01, 0x00, 0x00, 0x00, 0x04, 0x00, 0x00, 0x00, 0x94, 0xff, 0xff, 0xff,
  0x12, 0x00, 0x00, 0x00, 0x04, 0x00, 0x00, 0x00, 0x08, 0x00, 0x00, 0x00,
  0x6f, 0x75, 0x74, 0x70, 0x75, 0x74, 0x5f, 0x30, 0x00, 0x00, 0x00, 0x00,
  0x01, 0x00, 0x00, 0x00, 0x04, 0x00, 0x00, 0x00, 0xca, 0xb4, 0xff, 0xff,
  0x04, 0x00, 0x00, 0x00, 0x0b, 0x00, 0x00, 0x00, 0x69, 0x6e, 0x70, 0x75,
  0x74, 0x5f, 0x6c, 0x61, 0x79, 0x65, 0x72, 0x00, 0x02, 0x00, 0x00, 0x00,
  0x34, 0x00, 0x00, 0x00, 0x04, 0x00, 0x00, 0x00, 0xdc, 0xff, 0xff, 0xff,
  0x15, 0x00, 0x00, 0x00, 0x04, 0x00, 0x00, 0x00, 0x13, 0x00, 0x00, 0x00,
  0x43, 0x4f, 0x4e, 0x56, 0x45, 0x52, 0x53, 0x49, 0x4f, 0x4e, 0x5f, 0x4d,
  0x45, 0x54, 0x41, 0x44, 0x41, 0x54, 0x41, 0x00, 0x08, 0x00, 0x0c, 0x00,
  0x08, 0x00, 0x04, 0x00, 0x08, 0x00, 0x00, 0x00, 0x14, 0x00, 0x00, 0x00,
  0x04, 0x00, 0x00, 0x00, 0x13, 0x00, 0x00, 0x00, 0x6d, 0x69, 0x6e, 0x5f,
  0x72, 0x75, 0x6e, 0x74, 0x69, 0x6d, 0x65, 0x5f, 0x76, 0x65, 0x72, 0x73,
  0x69, 0x6f, 0x6e, 0x00, 0x16, 0x00, 0x00, 0x00, 0xbc, 0x53, 0x00, 0x00,
  0xb4, 0x53, 0x00, 0x00, 0xbc, 0x4a, 0x00, 0x00, 0x28, 0x49, 0x00, 0x00,
  0x9c, 0x47, 0x00, 0x00, 0x60, 0x46, 0x00, 0x00, 0xd4, 0x44, 0x00, 0x00,
  0x48, 0x43, 0x00, 0x00, 0xbc, 0x41, 0x00, 0x00, 0xc4, 0x38, 0x00, 0x00,
  0x9c, 0x38, 0x00, 0x00, 0xb4, 0x1c, 0x00, 0x00, 0xcc, 0x00, 0x00, 0x00,
  0xc4, 0x00, 0x00, 0x00, 0xbc, 0x00, 0x00, 0x00, 0xb4, 0x00, 0x00, 0x00,
  0xac, 0x00, 0x00, 0x00, 0xa4, 0x00, 0x00, 0x00, 0x9c, 0x00, 0x00, 0x00,
  0x94, 0x00, 0x00, 0x00, 0x74, 0x00, 0x00, 0x00, 0x04, 0x00, 0x00, 0x00,
  0x9a, 0xb5, 0xff, 0xff, 0x04, 0x00, 0x00, 0x00, 0x60, 0x00, 0x00, 0x00,
  0x0c, 0x00, 0x00, 0x00, 0x08, 0x00, 0x0e, 0x00, 0x08, 0x00, 0x04, 0x00,
  0x08, 0x00, 0x00, 0x00, 0x10, 0x00, 0x00, 0x00, 0x28, 0x00, 0x00, 0x00,
  0x00, 0x00, 0x06, 0x00, 0x08, 0x00, 0x04, 0x00, 0x06, 0x00, 0x00, 0x00,
  0x04, 0x00, 0x00, 0x00, 0x01, 0x00, 0x00, 0x00, 0xea, 0x03, 0x00, 0x00,
  0x0c, 0x00, 0x18, 0x00, 0x14, 0x00, 0x10, 0x00, 0x0c, 0x00, 0x04, 0x00,
  0x0c, 0x00, 0x00, 0x00, 0x24, 0xe0, 0x2b, 0x37, 0xa4, 0x1e, 0x7a, 0xf8,
  0x02, 0x00, 0x00, 0x00, 0x02, 0x00, 0x00, 0x00, 0x04, 0x00, 0x00, 0x00,
  0x06, 0x00, 0x00, 0x00, 0x32, 0x2e, 0x31, 0x38, 0x2e, 0x30, 0x00, 0x00,
  0x06, 0xb6, 0xff, 0xff, 0x04, 0x00, 0x00, 0x00, 0x10, 0x00, 0x00, 0x00,
  0x32, 0x2e, 0x31, 0x37, 0x2e, 0x30, 0x00, 0x00, 0x00, 0x00, 0x00, 0x00,
  0x00, 0x00, 0x00, 0x00, 0x1c, 0x9b, 0xff, 0xff, 0x20, 0x9b, 0xff, 0xff,
  0x24, 0x9b, 0xff, 0xff, 0x28, 0x9b, 0xff, 0xff, 0x2c, 0x9b, 0xff, 0xff,
  0x30, 0x9b, 0xff, 0xff, 0x34, 0x9b, 0xff, 0xff, 0x3e, 0xb6, 0xff, 0xff,
  0x04, 0x00, 0x00, 0x00, 0xd5, 0x1b, 0x00, 0x00, 0xd6, 0x16, 0x84, 0x0e,
  0x10, 0x1a, 0xf5, 0x2d, 0xb7, 0xc8, 0x25, 0x3a, 0xe6, 0xbb, 0x21, 0x0a,
  0x1a, 0x2b, 0x23, 0xc7, 0xef, 0xc8, 0xf6, 0xf7, 0x19, 0xe8, 0xfe, 0xd4,
  0x2d, 0x0a, 0x51, 0xf7, 0x05, 0x33, 0xe9, 0x14, 0x08, 0xe3, 0x28, 0xee,
  0x14, 0x2d, 0xc0, 0x23, 0xd1, 0xb9, 0x81, 0x05, 0x28, 0x03, 0xc3, 0x27,
  0xe6, 0xf6, 0x01, 0xe7, 0xdb, 0x0b, 0xdf, 0x07, 0x2e, 0xa8, 0x9c, 0xff,
  0xdd, 0xbc, 0xff, 0x24, 0xe9, 0x01, 0x07, 0x19, 0x12, 0xc4, 0x02, 0x2b,
  0x2f, 0x07, 0xe6, 0xe7, 0xfa, 0xdd, 0xbf, 0xb3, 0x0a, 0x2c, 0xce, 0xfd,
  0x34, 0x03, 0xb2, 0x0d, 0xd3, 0x1b, 0xfa, 0xd1, 0xde, 0x0f, 0xfa, 0xe1,
  0x2d, 0x01, 0x01, 0x0c, 0xfb, 0xfa, 0x57, 0xf4, 0xdc, 0x0f, 0x61, 0x0f,
  0xcd, 0xfd, 0x04, 0xee, 0xfe, 0xd1, 0xfd, 0x15, 0xf6, 0xf0, 0xf0, 0xfc,
  0x09, 0xeb, 0x1b, 0x02, 0x09, 0x38, 0xcf, 0x0b, 0x0a, 0x39, 0x0a, 0xa2,
  0xeb, 0x30, 0x01, 0xfe, 0x0c, 0x17, 0x96, 0x1e, 0x05, 0x01, 0xfc, 0x0b,
  0xe6, 0xe6, 0xf9, 0xe3, 0xfa, 0x07, 0xf6, 0x11, 0xe5, 0xf6, 0x0a, 0xfb,
  0x03, 0x03, 0xf6, 0xfa, 0xf6, 0xfc, 0x30, 0x1b, 0x00, 0xdb, 0x0a, 0xf5,
  0x1a, 0x0b, 0xfa, 0x00, 0x02, 0xfd, 0x05, 0xec, 0xe3, 0xdf, 0x16, 0x0f,
  0x25, 0x2b, 0x0b, 0xee, 0x81, 0xf3, 0xf5, 0xec, 0xf1, 0xef, 0x12, 0x07,
  0x03, 0x15, 0x0c, 0xc6, 0xf3, 0x16, 0x09, 0xc5, 0x0e, 0x1f, 0xf1, 0xff,
  0xfb, 0xfa, 0x92, 0x00, 0xab, 0xfd, 0xd7, 0xfa, 0xf5, 0xf9, 0x04, 0x03,
  0xe0, 0x0a, 0xf7, 0x03, 0x0f, 0x81, 0xef, 0x06, 0x0a, 0xe8, 0xf3, 0xdd,
  0x00, 0xfe, 0xfe, 0xf2, 0x0f, 0xf2, 0x1d, 0x0a, 0xfd, 0x09, 0xfe, 0xc7,
  0x0c, 0x0e, 0x01, 0x0a, 0x1b, 0xfc, 0x16, 0xf9, 0x0e, 0xf3, 0xfa, 0xfe,
  0xfa, 0xff, 0x03, 0x0a, 0x3d, 0xff, 0xae, 0xf8, 0x06, 0x10, 0x09, 0xf3,
  0x0b, 0x0f, 0xfd, 0xe0, 0x0f, 0x08, 0x0e, 0x10, 0xef, 0x0f, 0xe4, 0x0f,
  0x0a, 0x16, 0x03, 0xcd, 0xfc, 0xe3, 0xfe, 0xf2, 0x81, 0xc4, 0xf5, 0xee,
  0xcf, 0xfe, 0xf4, 0x06, 0xc4, 0xd7, 0xe2, 0x14, 0xed, 0xeb, 0xfa, 0x0b,
  0x0f, 0xcf, 0x00, 0xd3, 0xef, 0x34, 0xed, 0xfb, 0xf5, 0xf7, 0xe2, 0xcf,
  0xd1, 0xec, 0x0b, 0xf9, 0xab, 0xcb, 0xf8, 0x1d, 0xe8, 0x0c, 0xe0, 0xf5,
  0xde, 0xf6, 0xd7, 0x07, 0xd6, 0x0d, 0xe6, 0xf0, 0xc8, 0x07, 0xf6, 0xfd,
  0xc2, 0xe3, 0xe6, 0x05, 0xe9, 0xf4, 0xfa, 0x06, 0x13, 0xf3, 0xf5, 0xf0,
  0xe5, 0xbd, 0xaa, 0xf7, 0x00, 0xd7, 0xeb, 0x09, 0xf1, 0x01, 0xe8, 0xdb,
  0xf6, 0xf7, 0xfc, 0x26, 0x14, 0xb7, 0x00, 0x05, 0xf1, 0xe6, 0xee, 0xf3,
  0xbc, 0x39, 0xcc, 0xdf, 0x87, 0xd6, 0x0c, 0x19, 0x0d, 0x12, 0x03, 0x06,
  0x21, 0x09, 0x01, 0x1b, 0x12, 0x05, 0xec, 0x13, 0x3a, 0xf4, 0x2c, 0x1d,
  0xf5, 0xd5, 0xbf, 0x23, 0xe7, 0x3b, 0x15, 0xd7, 0x05, 0xca, 0x29, 0x26,
  0x0b, 0xfc, 0x20, 0xc5, 0xd3, 0xfa, 0xf3, 0x2f, 0xee, 0x21, 0xe8, 0x11,
  0x24, 0xf6, 0x02, 0x81, 0xc2, 0x31, 0xf5, 0x2e, 0x00, 0xdf, 0x00, 0x89,
  0x0d, 0xf7, 0x1a, 0x26, 0x36, 0x92, 0xee, 0x14, 0xf7, 0x07, 0x01, 0xf1,
  0x31, 0x39, 0x09, 0x06, 0xf0, 0x16, 0xbd, 0x29, 0x1a, 0xf0, 0x00, 0xff,
  0x14, 0x15, 0x20, 0x08, 0xa1, 0x1e, 0xc4, 0xe1, 0x0f, 0x1d, 0xec, 0xff,
  0xd3, 0xeb, 0xf2, 0xb2, 0x14, 0x08, 0x10, 0x19, 0x21, 0xf6, 0xf8, 0xe8,
  0x1a, 0x1d, 0x05, 0xfe, 0x19, 0xfe, 0xf0, 0x3f, 0xf9, 0xfc, 0x07, 0x28,
  0xb6, 0xdd, 0x35, 0x12, 0xf6, 0x06, 0x05, 0x12, 0x02, 0x54, 0x10, 0xf8,
  0x13, 0xe6, 0xea, 0xff, 0xfc, 0xf2, 0x21, 0x07, 0x42, 0xf8, 0x33, 0xdf,
  0x17, 0xf5, 0x0a, 0xeb, 0x0c, 0x2b, 0xff, 0xe0, 0xfa, 0xd8, 0x81, 0x01,
  0xde, 0x0e, 0x03, 0x3a, 0xa8, 0x82, 0x1c, 0xe9, 0xf7, 0xec, 0x04, 0x3c,
  0x04, 0xd8, 0xf7, 0x28, 0xec, 0x06, 0x10, 0x32, 0x16, 0xf6, 0x32, 0xfa,
  0x01, 0x28, 0xd4, 0x97, 0x46, 0xbd, 0x20, 0x3a, 0x03, 0xe8, 0xfe, 0xce,
  0x09, 0xf7, 0xfc, 0xfd, 0x20, 0x01, 0x1f, 0xdf, 0xde, 0x30, 0x00, 0x00,
  0x1b, 0x03, 0xf6, 0x10, 0x07, 0x18, 0x1c, 0xea, 0x19, 0xf8, 0x14, 0xfc,
  0x1e, 0x18, 0x22, 0x13, 0xfc, 0xd9, 0x01, 0x09, 0x00, 0x1d, 0x81, 0x0e,
  0x12, 0x10, 0x03, 0x36, 0xe1, 0x13, 0xf6, 0x0f, 0x09, 0x12, 0xce, 0xfa,
  0x12, 0x14, 0x1c, 0x1d, 0x28, 0xfb, 0x17, 0xed, 0x01, 0xf1, 0x1e, 0xf6,
  0x14, 0xf2, 0x3e, 0x0b, 0xb2, 0xf9, 0xee, 0x10, 0xfa, 0x0e, 0xf9, 0x17,
  0xf6, 0x12, 0x14, 0xee, 0x02, 0x0e, 0x1d, 0xed, 0x26, 0x02, 0x0f, 0xf2,
  0xd1, 0xe5, 0xf2, 0x10, 0xf6, 0xe3, 0xfa, 0xe0, 0x07, 0x05, 0xd7, 0x18,
  0xdc, 0xea, 0xfa, 0xfe, 0xf8, 0xf9, 0xe0, 0xc0, 0x29, 0x06, 0x01, 0x03,
  0x34, 0x12, 0xec, 0xfe, 0x19, 0x01, 0xc4, 0x1f, 0x32, 0x15, 0x09, 0x04,
  0x0f, 0xf9, 0x00, 0x2c, 0xf2, 0xe8, 0x0c, 0x0e, 0x1e, 0x81, 0xf8, 0x2d,
  0x06, 0xfc, 0x08, 0xf0, 0x23, 0x1a, 0xe9, 0xfe, 0xe9, 0xd3, 0x04, 0xfa,
  0xe6, 0xf6, 0x12, 0xfa, 0x19, 0xf7, 0xec, 0x19, 0xfa, 0xfc, 0x05, 0x17,
  0x31, 0x05, 0xe4, 0xde, 0xdc, 0x05, 0x02, 0xec, 0x1c, 0x0a, 0x07, 0xf0,
  0x06, 0x07, 0x09, 0xea, 0x04, 0xf1, 0x1a, 0x11, 0x13, 0x06, 0x10, 0xe1,
  0x0e, 0xeb, 0x03, 0xeb, 0xd2, 0xda, 0xf0, 0x07, 0x04, 0xfd, 0xf8, 0xe6,
  0x33, 0x00, 0x26, 0x2f, 0xc0, 0x02, 0xfe, 0xed, 0x2b, 0x43, 0x06, 0xdc,
  0x02, 0x5e, 0xf9, 0xdd, 0x0c, 0x12, 0x1d, 0xea, 0x35, 0x5e, 0x05, 0x31,
  0xdf, 0x06, 0x08, 0xd9, 0x1c, 0x3f, 0x05, 0x25, 0x14, 0xfb, 0xdc, 0xfa,
  0xbb, 0x3a, 0x0a, 0x60, 0x8e, 0x1e, 0x25, 0x23, 0xff, 0x75, 0x2f, 0x12,
  0xde, 0x65, 0x25, 0xe7, 0x11, 0x0f, 0xd7, 0x4c, 0xf5, 0x11, 0x22, 0x0a,
  0x0b, 0x09, 0x24, 0x2b, 0x58, 0x3d, 0x0b, 0x28, 0x38, 0x07, 0x29, 0xe9,
  0xd8, 0x7f, 0x2f, 0x1e, 0x38, 0x0f, 0xdf, 0x24, 0xf5, 0xdc, 0x00, 0x0f,
  0x3a, 0xaa, 0x24, 0x1c, 0xfc, 0x0d, 0x19, 0x11, 0x3b, 0xf0, 0x36, 0xcc,
  0x81, 0x10, 0x09, 0x18, 0x3b, 0x41, 0x0c, 0x03, 0xdd, 0x00, 0x4c, 0x13,
  0xfd, 0xfa, 0x55, 0xf9, 0xbd, 0xea, 0xfa, 0xe3, 0x05, 0x90, 0xfc, 0x08,
  0xdc, 0x0c, 0x96, 0xe5, 0x01, 0xf1, 0x2d, 0xe1, 0xc7, 0x5d, 0x92, 0x04,
  0x07, 0x0a, 0xfe, 0xc0, 0xef, 0x4c, 0x09, 0xfb, 0xe4, 0x11, 0xb5, 0x05,
  0xfe, 0x34, 0xff, 0x08, 0xb5, 0xd6, 0xff, 0x11, 0x11, 0xed, 0xf7, 0x07,
  0xc2, 0xf3, 0x5d, 0x08, 0x73, 0x05, 0x08, 0x10, 0x24, 0xee, 0x0a, 0x08,
  0xfa, 0xd0, 0x29, 0x0a, 0x34, 0x1e, 0xf9, 0xbb, 0xff, 0x07, 0xf1, 0xe7,
  0x11, 0xba, 0x30, 0xfc, 0xe5, 0x1f, 0x09, 0xfa, 0x8e, 0xf5, 0xfa, 0x24,
  0x00, 0xdc, 0x12, 0x0b, 0xeb, 0x0b, 0x04, 0x01, 0xcf, 0xf6, 0x2d, 0xfa,
  0xc5, 0xeb, 0xe7, 0xe7, 0x16, 0x25, 0xe9, 0x26, 0x14, 0x1c, 0x06, 0xfb,
  0x47, 0xee, 0xbc, 0x02, 0xec, 0x21, 0xf9, 0xff, 0xf9, 0xed, 0xee, 0x08,
  0xab, 0x15, 0xf8, 0xe2, 0xed, 0x0f, 0xf9, 0x16, 0xef, 0x1d, 0xf5, 0x17,
  0x05, 0xf0, 0xf8, 0xf5, 0x10, 0x09, 0x0e, 0x26, 0xf3, 0x27, 0x12, 0x02,
  0x26, 0x07, 0x17, 0xf1, 0x17, 0x15, 0xe2, 0x15, 0x1f, 0xe5, 0x07, 0x03,
  0x12, 0xf3, 0xff, 0x12, 0x13, 0x1e, 0x00, 0x47, 0xe2, 0xf3, 0x2a, 0xfc,
  0x01, 0xd8, 0x81, 0x0c, 0xeb, 0xf1, 0x05, 0x09, 0x36, 0xf4, 0xd7, 0xfb,
  0x02, 0xf4, 0x1c, 0x09, 0xf2, 0xff, 0x17, 0x12, 0x0f, 0x0b, 0x03, 0xf7,
  0x04, 0x05, 0xea, 0xf5, 0xfd, 0xfc, 0xff, 0x03, 0x09, 0xe3, 0x02, 0xf2,
  0xc3, 0xff, 0xf1, 0x00, 0x0e, 0x0c, 0xaa, 0x16, 0xf0, 0x81, 0xfe, 0xe9,
  0x11, 0xf8, 0xf4, 0x14, 0x0d, 0xe8, 0x19, 0x01, 0x09, 0x9e, 0x16, 0x17,
  0xfd, 0xe3, 0xef, 0x03, 0x08, 0x10, 0x17, 0xfe, 0xf4, 0x10, 0xfa, 0x14,
  0x0b, 0x20, 0x1f, 0x03, 0x0c, 0x13, 0xfe, 0x24, 0xf3, 0x02, 0x08, 0xfc,
  0x26, 0x02, 0x12, 0x03, 0x09, 0xa8, 0x10, 0x15, 0xfd, 0x25, 0x02, 0xf6,
  0x01, 0x00, 0x01, 0xfe, 0x02, 0x11, 0xf0, 0x11, 0x06, 0x0d, 0x04, 0x81,
  0x17, 0x0c, 0x0e, 0x17, 0x08, 0xfa, 0xdf, 0x22, 0xef, 0xfe, 0x17, 0x17,
  0xe8, 0xf5, 0xf9, 0x06, 0xf6, 0xf7, 0xf3, 0x1a, 0x27, 0xfb, 0xf4, 0x1c,
  0x18, 0xf6, 0xe1, 0x04, 0xfd, 0x0e, 0x0a, 0x07, 0xff, 0x0f, 0x1b, 0xe1,
  0x06, 0xdb, 0x02, 0x08, 0x11, 0x04, 0x16, 0x04, 0x07, 0x14, 0x12, 0x01,
  0x12, 0x00, 0x0b, 0x10, 0xff, 0x02, 0x08, 0xf2, 0x1f, 0x0e, 0x0b, 0x13,
  0x07, 0xfe, 0xea, 0x0c, 0xa6, 0xf7, 0xfb, 0x29, 0x24, 0xfc, 0xfa, 0x07,
  0x09, 0xf8, 0xe5, 0x11, 0x20, 0xf7, 0xec, 0xe2, 0xe8, 0x3a, 0x11, 0x02,
  0xd9, 0xfb, 0xf7, 0x03, 0xf4, 0x09, 0xe7, 0x14, 0x11, 0x39, 0x0b, 0x21,
  0x0d, 0x22, 0x96, 0x0f, 0xe8, 0xf9, 0x07, 0x10, 0x00, 0xdb, 0x08, 0xfc,
  0x49, 0xf5, 0x90, 0xe4, 0xe6, 0x2b, 0xec, 0x90, 0xd1, 0x8e, 0x21, 0x19,
  0x81, 0xeb, 0xde, 0x01, 0x02, 0xe8, 0xfd, 0x9d, 0x0d, 0x1e, 0xc4, 0xce,
  0xfe, 0x39, 0x0b, 0x15, 0xcf, 0x1c, 0x3a, 0xf1, 0x33, 0xf2, 0xf8, 0x1d,
  0x22, 0xce, 0xf4, 0x0e, 0xe7, 0x25, 0xa9, 0xf8, 0x26, 0x14, 0xe1, 0xec,
  0x09, 0x3e, 0xfe, 0x42, 0xd3, 0xde, 0x27, 0xf8, 0xcc, 0x45, 0xd8, 0x34,
  0x01, 0xfc, 0x12, 0x19, 0xcb, 0x01, 0xe1, 0xd5, 0xf8, 0x20, 0xff, 0x09,
  0x21, 0x00, 0xae, 0xeb, 0x1c, 0x13, 0xde, 0xc3, 0xcc, 0xf9, 0xea, 0xf3,
  0x0f, 0xfc, 0x0a, 0xe6, 0xfd, 0x26, 0xe8, 0xf2, 0xf2, 0x0b, 0x16, 0x06,
  0xee, 0x01, 0xd8, 0xec, 0x15, 0x1c, 0xf3, 0x2d, 0x01, 0xe5, 0x1e, 0x02,
  0x07, 0xfe, 0x2a, 0xcf, 0xfc, 0x21, 0xd6, 0x12, 0xee, 0xcd, 0x1e, 0x19,
  0xfc, 0x1e, 0xd3, 0x81, 0xd8, 0x14, 0xe1, 0x0d, 0xfa, 0x1c, 0x23, 0x05,
  0xc3, 0x96, 0xef, 0xbc, 0xf7, 0x1d, 0x04, 0xdb, 0xd5, 0x11, 0xcc, 0xf1,
  0xee, 0x0a, 0x06, 0x16, 0x17, 0xf3, 0x11, 0xe5, 0x0e, 0x12, 0x23, 0xe9,
  0xf9, 0x0f, 0xd7, 0xff, 0xef, 0x01, 0xd1, 0x25, 0xed, 0xf6, 0x0b, 0x0a,
  0xe4, 0xf7, 0xf5, 0x0a, 0x20, 0x00, 0x00, 0xfd, 0xf0, 0xfa, 0xa7, 0xfa,
  0x07, 0xf8, 0x01, 0xe5, 0x01, 0xfe, 0x00, 0xdc, 0x01, 0xf6, 0xf8, 0xda,
  0xfb, 0x06, 0x03, 0x01, 0xf9, 0xe7, 0x01, 0xf3, 0x02, 0x00, 0xe2, 0xf5,
  0xf9, 0x96, 0x00, 0x02, 0x04, 0xf2, 0xfc, 0xf7, 0x03, 0xfb, 0xf3, 0xff,
  0x00, 0xc8, 0x03, 0x01, 0xfe, 0xe2, 0x09, 0x06, 0xf7, 0xf2, 0xfe, 0xfe,
  0x01, 0xff, 0xfb, 0x07, 0x07, 0xfa, 0xfe, 0x07, 0xfd, 0x07, 0x12, 0xf3,
  0xef, 0xf0, 0xf6, 0x07, 0xf7, 0x02, 0x08, 0xfe, 0x05, 0xf8, 0x81, 0x0c,
  0x05, 0xe9, 0x01, 0xc9, 0xe7, 0xff, 0xf3, 0xfe, 0xfb, 0xf1, 0xe6, 0x0a,
  0xf2, 0xff, 0x03, 0xf9, 0xfb, 0xf6, 0xe5, 0xff, 0xf2, 0x74, 0xe5, 0xdf,
  0xe1, 0xfe, 0xf6, 0x65, 0xe2, 0xcb, 0xb1, 0x7f, 0x0b, 0x01, 0x98, 0x20,
  0x26, 0xd4, 0x3f, 0x6a, 0x1e, 0xde, 0x11, 0xec, 0xd7, 0x2c, 0x9d, 0x1a,
  0xd6, 0x07, 0x09, 0x35, 0x05, 0x12, 0x79, 0x10, 0xfd, 0xa7, 0x0c, 0x38,
  0x22, 0xc8, 0xdd, 0xf6, 0x20, 0x2f, 0xf9, 0x00, 0x3d, 0x40, 0xff, 0xf5,
  0xcd, 0xf2, 0xf1, 0x0c, 0xf5, 0xfe, 0x21, 0x10, 0x2e, 0xc6, 0x23, 0x03,
  0xce, 0x01, 0x1d, 0x7a, 0x3f, 0x5a, 0x21, 0xff, 0x3f, 0xf2, 0xcd, 0x77,
  0x20, 0xf7, 0xe1, 0xe8, 0xfb, 0x2a, 0x01, 0x54, 0xa6, 0x13, 0xac, 0x26,
  0x19, 0xf9, 0x2d, 0x01, 0x0b, 0x0b, 0xfb, 0x01, 0xf6, 0xec, 0x05, 0x06,
  0x12, 0xf4, 0xb7, 0x05, 0xfe, 0x0a, 0x00, 0xf5, 0x06, 0x0a, 0x09, 0xff,
  0xd8, 0xe5, 0xf5, 0x0a, 0x04, 0xfd, 0x0c, 0xd4, 0xfe, 0x04, 0x00, 0x8e,
  0x08, 0x81, 0xb1, 0x0e, 0x08, 0xfa, 0x04, 0x0a, 0x0f, 0x11, 0xfa, 0x04,
  0xf4, 0x04, 0xeb, 0x08, 0xfd, 0xfc, 0xff, 0x05, 0xb6, 0x04, 0xee, 0xf6,
  0x00, 0x08, 0x04, 0x02, 0xed, 0xfc, 0x03, 0xc4, 0xfb, 0xf6, 0xff, 0x04,
  0x01, 0xe4, 0x08, 0xbc, 0xce, 0x01, 0x97, 0xf3, 0xe7, 0x07, 0x02, 0x07,
  0x05, 0x06, 0x08, 0xc6, 0xf8, 0x09, 0xf9, 0x02, 0x03, 0x02, 0x02, 0xdd,
  0x0c, 0xf0, 0xac, 0x09, 0xf5, 0x05, 0xfd, 0xea, 0xe4, 0x23, 0x0e, 0xf1,
  0x9f, 0x8d, 0x02, 0xfb, 0x22, 0x04, 0xfc, 0xe5, 0xfb, 0xfd, 0x0b, 0x1a,
  0xef, 0x05, 0x29, 0x10, 0x14, 0xbd, 0xfd, 0x22, 0xf2, 0x02, 0xe9, 0x0b,
  0xe7, 0x81, 0x24, 0xfe, 0xfa, 0x01, 0x03, 0xe2, 0x00, 0x08, 0x06, 0xda,
  0x07, 0xd9, 0x10, 0x06, 0xfd, 0x00, 0x18, 0xe4, 0x02, 0x1f, 0xf5, 0xfa,
  0x04, 0x11, 0x00, 0xca, 0xf6, 0xeb, 0xd5, 0xe9, 0x12, 0x00, 0x0d, 0x12,
  0xbe, 0xfe, 0xd5, 0xc0, 0xf4, 0x8f, 0xfc, 0xf5, 0x10, 0xf6, 0x11, 0x15,
  0x83, 0x0e, 0xf0, 0x0f, 0xfa, 0xf6, 0x1d, 0xed, 0x02, 0x16, 0xf2, 0x15,
  0xe7, 0xe3, 0xf8, 0xa5, 0xff, 0xf1, 0xf5, 0xf7, 0xfb, 0xe5, 0xc1, 0xcf,
  0xf8, 0x01, 0xdd, 0xed, 0xdc, 0xfa, 0xfc, 0x05, 0xfe, 0x0e, 0x0b, 0x0a,
  0x12, 0x0e, 0x1a, 0xfe, 0xeb, 0x0b, 0x03, 0x0d, 0x00, 0xb2, 0x04, 0xf8,
  0xf8, 0x00, 0xff, 0x0b, 0x0c, 0xf5, 0x0b, 0xf3, 0xf2, 0x08, 0xc3, 0xc1,
  0xf6, 0x06, 0xfd, 0xe6, 0x03, 0xee, 0x01, 0xf2, 0xd7, 0xe5, 0xfd, 0x02,
  0x0a, 0xfe, 0xee, 0xe2, 0xfc, 0xde, 0xf2, 0x06, 0x0a, 0x0f, 0xf0, 0x00,
  0x10, 0xd1, 0x81, 0xfd, 0xcc, 0x07, 0x03, 0xfe, 0x0e, 0xf9, 0x03, 0xfb,
  0xe0, 0xe3, 0x0d, 0xe0, 0x00, 0xfc, 0xfc, 0xdf, 0xfe, 0xfb, 0xfd, 0x01,
  0x05, 0xfb, 0x0d, 0xb9, 0x12, 0xf9, 0xff, 0xfb, 0xd3, 0x0b, 0xdb, 0xec,
  0x0c, 0x31, 0xee, 0xf8, 0x81, 0x02, 0xf6, 0xff, 0xf5, 0xfe, 0x03, 0x07,
  0x09, 0x01, 0x05, 0x0e, 0xb5, 0xf2, 0xf7, 0x0c, 0x00, 0x0b, 0x04, 0xdc,
  0xf7, 0x00, 0x0d, 0x22, 0x05, 0xcb, 0x09, 0x03, 0xff, 0x1c, 0x18, 0x09,
  0x0e, 0x0b, 0x0c, 0x03, 0xfc, 0x11, 0xfe, 0x05, 0x01, 0x01, 0xfa, 0xff,
  0xfe, 0x07, 0xf3, 0xf7, 0x05, 0x03, 0xfe, 0x0a, 0xdc, 0xff, 0x04, 0xeb,
  0xea, 0xfd, 0xfe, 0xfb, 0xf0, 0xea, 0x18, 0x12, 0x05, 0xfa, 0xf5, 0xec,
  0x00, 0x10, 0x12, 0x07, 0x9d, 0xf5, 0x00, 0xfc, 0x1a, 0x01, 0x1c, 0xf7,
  0xe7, 0xf4, 0xf9, 0xe3, 0x16, 0x03, 0xf6, 0x05, 0x06, 0xf3, 0x44, 0xe1,
  0xff, 0xf3, 0x51, 0x0d, 0x09, 0x0a, 0xf8, 0x02, 0xf5, 0xfb, 0x0f, 0xd1,
  0xfd, 0xf9, 0xfa, 0xfe, 0xf6, 0xfa, 0x07, 0xe8, 0xfa, 0x18, 0x06, 0x81,
  0x10, 0x21, 0xe3, 0xce, 0x06, 0x0c, 0xff, 0x07, 0x00, 0x02, 0xe6, 0x02,
  0xfe, 0xf3, 0x05, 0x0c, 0xf9, 0xd8, 0xf2, 0xdf, 0xdf, 0x06, 0x01, 0x07,
  0xf3, 0x0d, 0x10, 0x05, 0x18, 0x01, 0xff, 0x01, 0x0a, 0x2e, 0x04, 0x1c,
  0x46, 0x0b, 0x28, 0x0c, 0xff, 0xe8, 0xfd, 0xfa, 0x02, 0x08, 0x0c, 0x01,
  0xde, 0xfe, 0x20, 0x13, 0xfd, 0x0a, 0xe3, 0x1b, 0x01, 0x1c, 0xb2, 0xde,
  0xdd, 0x14, 0x09, 0xd9, 0x10, 0xf3, 0x08, 0x0e, 0xb2, 0xb7, 0xf9, 0x04,
  0x0f, 0xc9, 0x29, 0xf1, 0x0c, 0x13, 0xfd, 0xb5, 0xf4, 0x18, 0x01, 0xb7,
  0xe9, 0xfa, 0x17, 0xef, 0x05, 0x0c, 0xac, 0xe6, 0x13, 0x0d, 0xf4, 0x2b,
  0xfe, 0x0c, 0x07, 0x1c, 0x09, 0x2e, 0xde, 0xe0, 0xec, 0xc5, 0xd8, 0x0c,
  0xf0, 0xf7, 0xfd, 0x0c, 0xd5, 0xa3, 0x07, 0xa0, 0xc1, 0xdd, 0x0c, 0xc2,
  0xe3, 0x2d, 0x00, 0x2e, 0x0e, 0xde, 0xfa, 0xeb, 0x0d, 0x0d, 0xb2, 0xa6,
  0xf7, 0x81, 0x1e, 0xff, 0x08, 0x3a, 0xc6, 0x01, 0xf1, 0xdb, 0xd4, 0x34,
  0x2d, 0x25, 0xfe, 0x05, 0xe7, 0xdc, 0x0f, 0x01, 0x06, 0xd6, 0xf1, 0xf3,
  0x06, 0xdc, 0xfb, 0xed, 0xfe, 0x04, 0xaa, 0xd2, 0x28, 0xfb, 0xc7, 0xed,
  0x2b, 0x0e, 0x00, 0x07, 0xf0, 0xb7, 0xea, 0x81, 0x03, 0xd1, 0xea, 0xf9,
  0xfb, 0x0b, 0x05, 0xe4, 0xfd, 0xfb, 0x0e, 0xfb, 0x92, 0x22, 0x1a, 0xf5,
  0xf0, 0xca, 0xfd, 0x04, 0xf8, 0x1c, 0x1f, 0xfa, 0xc8, 0x00, 0x18, 0xc3,
  0x10, 0x22, 0x86, 0xf5, 0x3b, 0xdd, 0x02, 0xf0, 0xfb, 0x01, 0xfd, 0x17,
  0xca, 0xf0, 0xe4, 0xb3, 0xbc, 0xef, 0xf2, 0x2d, 0x1f, 0xf5, 0x1f, 0xed,
  0x15, 0xf4, 0xd6, 0x12, 0x0d, 0x14, 0x11, 0x1f, 0x1f, 0x0e, 0xdb, 0xfe,
  0xf6, 0x02, 0x15, 0x01, 0x36, 0xb6, 0xb0, 0xe0, 0x05, 0xe8, 0xf6, 0xf4,
  0x14, 0x07, 0x37, 0x10, 0x16, 0xd1, 0x18, 0x0a, 0x03, 0xeb, 0xf3, 0xf4,
  0x05, 0x08, 0xcf, 0xdd, 0xfe, 0xfe, 0x0a, 0xee, 0xff, 0x9c, 0x19, 0xf3,
  0xff, 0x03, 0xfe, 0x12, 0x09, 0xe4, 0xf8, 0x01, 0x08, 0x0b, 0x10, 0xd4,
  0xf6, 0xd8, 0x40, 0xf6, 0xd7, 0xf0, 0xed, 0x1b, 0x1c, 0xf2, 0x24, 0xc2,
  0xfc, 0xe6, 0xfc, 0x0b, 0xf8, 0x18, 0xd2, 0xee, 0x07, 0xfc, 0xfa, 0x56,
  0xf4, 0x69, 0x08, 0x06, 0xf0, 0x18, 0x03, 0xfb, 0x0a, 0xd9, 0x06, 0xfb,
  0x00, 0x05, 0x25, 0xf6, 0x00, 0xf3, 0xfd, 0x81, 0x1c, 0x00, 0x0f, 0x0e,
  0x09, 0xdd, 0x29, 0x00, 0xe8, 0xfe, 0xd9, 0xfd, 0x08, 0xf4, 0xf3, 0xe9,
  0x30, 0xef, 0xe2, 0x00, 0xfd, 0xf8, 0x42, 0xcb, 0xd3, 0xf5, 0x56, 0xf2,
  0xf8, 0x06, 0xef, 0x09, 0x81, 0xf4, 0x33, 0x00, 0x04, 0xf0, 0xfb, 0xf3,
  0xee, 0x0f, 0xff, 0xfd, 0x04, 0xec, 0x09, 0xd3, 0x05, 0xfb, 0xf5, 0xf1,
  0x18, 0xdd, 0x0c, 0xed, 0xeb, 0xef, 0xe6, 0xf6, 0x0d, 0xe8, 0x15, 0xf7,
  0x11, 0xe1, 0x8c, 0xce, 0xbf, 0x03, 0xee, 0x1a, 0xec, 0xe3, 0xdc, 0x08,
  0xcb, 0xf9, 0x17, 0x05, 0xef, 0xce, 0xe8, 0x10, 0x31, 0xec, 0x08, 0xe5,
  0xf7, 0x1f, 0x19, 0x0d, 0xd5, 0xfd, 0xe5, 0x9d, 0x16, 0xd6, 0x02, 0x03,
  0x03, 0x16, 0xf7, 0xfa, 0x09, 0x03, 0xfa, 0x07, 0x00, 0xbf, 0x16, 0x3d,
  0xf9, 0xfa, 0xcc, 0x08, 0xcc, 0xfd, 0x00, 0x02, 0xb5, 0x00, 0xbf, 0xa7,
  0xa0, 0xf3, 0x07, 0x00, 0x06, 0xf5, 0xe2, 0xfb, 0x0a, 0xeb, 0xbf, 0x08,
  0xd6, 0x0e, 0x3d, 0xb1, 0xff, 0xfb, 0xf5, 0xbd, 0xe6, 0x08, 0xfd, 0xd3,
  0x0a, 0xec, 0x24, 0xfc, 0x0e, 0x00, 0xc2, 0x06, 0x1f, 0xb4, 0xa9, 0xf4,
  0x01, 0xf4, 0x03, 0xf6, 0xec, 0x02, 0xca, 0x01, 0xee, 0x10, 0xfd, 0xfe,
  0x9d, 0xb5, 0xae, 0x28, 0xff, 0xe2, 0x06, 0xfc, 0x01, 0x0a, 0xc0, 0x7f,
  0x12, 0xf6, 0xa3, 0x02, 0x1c, 0xbb, 0xff, 0xc6, 0x08, 0xf4, 0xde, 0x95,
  0xf6, 0x09, 0xf6, 0x00, 0xfc, 0x3a, 0x09, 0xfa, 0xea, 0x13, 0x62, 0xe5,
  0xde, 0x1f, 0xba, 0xe0, 0xd9, 0x24, 0xb0, 0x22, 0xf3, 0xe8, 0xe4, 0x64,
  0x42, 0xe3, 0x2a, 0x1b, 0x0b, 0x0e, 0x06, 0x09, 0xff, 0xe4, 0xf1, 0x1a,
  0x13, 0x4b, 0x22, 0x2d, 0x0b, 0x3d, 0xe0, 0xfa, 0xc7, 0x38, 0x27, 0xb0,
  0x2c, 0x59, 0xca, 0xe8, 0x24, 0xe2, 0x0d, 0xcc, 0x3c, 0x61, 0xfa, 0xfd,
  0x06, 0xea, 0x1d, 0x1f, 0x0c, 0xf3, 0x0c, 0x36, 0x81, 0xf2, 0xbc, 0x0d,
  0xeb, 0xfc, 0xf0, 0x21, 0x67, 0xf6, 0xf3, 0xe7, 0x12, 0x25, 0x0e, 0xcb,
  0xf5, 0x32, 0x20, 0x24, 0x20, 0x42, 0xde, 0x01, 0xe0, 0xfa, 0x46, 0xa9,
  0xd9, 0x20, 0xf8, 0x04, 0x25, 0xee, 0x19, 0xba, 0xdf, 0xd3, 0xa7, 0xdd,
  0x2b, 0xe3, 0x26, 0x19, 0x12, 0xe0, 0x0f, 0x15, 0x9f, 0x00, 0x15, 0xa9,
  0xf4, 0x31, 0x0d, 0x08, 0x15, 0x0f, 0x02, 0x05, 0xca, 0xe9, 0xb7, 0xff,
  0xf3, 0x51, 0x06, 0xf2, 0x03, 0x3b, 0xd4, 0xd9, 0xb7, 0xbd, 0x3c, 0x0a,
  0xfc, 0x23, 0x27, 0x03, 0x0d, 0x01, 0xd5, 0xf4, 0x69, 0xf1, 0xe8, 0x0c,
  0x0a, 0x28, 0x2c, 0xdf, 0x14, 0x26, 0x3d, 0x1f, 0x0c, 0x07, 0xf8, 0x0c,
  0x81, 0xeb, 0x0d, 0x01, 0xef, 0x06, 0x2d, 0x12, 0xe3, 0x82, 0x41, 0x13,
  0x2c, 0x08, 0xc8, 0x17, 0x21, 0xfe, 0x08, 0xe6, 0xc1, 0xfd, 0x67, 0xfc,
  0x04, 0xe7, 0xef, 0x0c, 0xfc, 0x0c, 0xff, 0x02, 0x81, 0x0c, 0xff, 0xfc,
  0x06, 0x04, 0x07, 0x0c, 0xfd, 0x02, 0x0a, 0xfe, 0xee, 0xff, 0xe4, 0xff,
  0x04, 0x05, 0xfb, 0xed, 0x01, 0x03, 0xd1, 0xf5, 0xce, 0xfd, 0x02, 0x83,
  0xed, 0x1a, 0xe2, 0xc6, 0x0a, 0xd8, 0x06, 0xd9, 0x02, 0x07, 0x08, 0x92,
  0x00, 0x05, 0x07, 0xdc, 0xfd, 0x16, 0xeb, 0xdd, 0xeb, 0x00, 0x09, 0x0b,
  0x01, 0xfa, 0x12, 0xf8, 0x11, 0xfe, 0xfe, 0x0a, 0x0c, 0x02, 0xff, 0xf7,
  0xe4, 0xf4, 0xf1, 0x0a, 0x0b, 0xfe, 0x0f, 0xf8, 0x01, 0x10, 0x06, 0x10,
  0xfb, 0xf7, 0xfc, 0x00, 0xfa, 0x01, 0xee, 0xfd, 0xe7, 0x0a, 0xe2, 0x01,
  0xf4, 0xef, 0xd6, 0xf0, 0x21, 0xf6, 0x19, 0x0c, 0xe3, 0xf9, 0x26, 0xf4,
  0x02, 0x29, 0xf7, 0xe6, 0x22, 0x36, 0xff, 0x01, 0xf7, 0xb3, 0xf7, 0x93,
  0x03, 0x1c, 0x03, 0xeb, 0xd3, 0x03, 0x0d, 0xf2, 0xf4, 0x09, 0xef, 0x25,
  0x00, 0xee, 0xfb, 0x31, 0xf2, 0x12, 0xf3, 0xe5, 0x1a, 0x1c, 0x02, 0xf8,
  0x2f, 0xe2, 0x03, 0x14, 0x00, 0xe7, 0x20, 0xfa, 0x81, 0x98, 0xf3, 0xa5,
  0x22, 0xc9, 0x2c, 0xef, 0x09, 0xf0, 0x0b, 0x05, 0xfb, 0xfd, 0xf3, 0x07,
  0xcb, 0x09, 0x45, 0x30, 0x05, 0x1e, 0xec, 0xe0, 0x22, 0x25, 0x0d, 0xcb,
  0x16, 0x20, 0xb0, 0xfe, 0x0f, 0xfd, 0xe1, 0xe0, 0x42, 0xf5, 0xdf, 0x98,
  0xe6, 0x04, 0xf8, 0x09, 0xfe, 0xf3, 0x2b, 0x09, 0x81, 0xec, 0xfe, 0xcb,
  0x07, 0x0b, 0xff, 0xef, 0x06, 0x16, 0xff, 0xf2, 0x05, 0x02, 0xf6, 0x05,
  0x0b, 0xf6, 0xdb, 0x02, 0x0a, 0x0c, 0x0b, 0xe1, 0xf3, 0x0a, 0x07, 0x04,
  0x06, 0xdb, 0xf3, 0x0f, 0x0d, 0xdf, 0x01, 0xe9, 0xe9, 0x11, 0xfd, 0x02,
  0xf8, 0x01, 0x05, 0xf7, 0x08, 0xfd, 0x0c, 0x09, 0x0d, 0x06, 0xf2, 0xe4,
  0xfa, 0xd3, 0x0d, 0xfa, 0xed, 0x0b, 0xe2, 0x12, 0xd3, 0x09, 0xf3, 0xed,
  0x0d, 0xfe, 0x04, 0x13, 0xf9, 0x0b, 0x25, 0x96, 0x01, 0xf3, 0xf6, 0x1b,
  0x0a, 0xfd, 0xee, 0xfa, 0x04, 0x05, 0x09, 0xe5, 0xf5, 0x08, 0xf7, 0x03,
  0x0a, 0xf8, 0xfd, 0x13, 0xe8, 0xf4, 0x0d, 0xf3, 0xd3, 0x0b, 0xeb, 0xdb,
  0x10, 0x05, 0xf8, 0xe8, 0xff, 0xf7, 0x9f, 0xf7, 0xfd, 0xe5, 0xe5, 0xfc,
  0x20, 0xf0, 0x02, 0xfd, 0x03, 0x01, 0xf6, 0xd1, 0xc7, 0x05, 0xd4, 0xec,
  0xf9, 0xf3, 0x0d, 0x08, 0xb8, 0x11, 0xd8, 0xf1, 0x04, 0xfe, 0xd5, 0x00,
  0x0d, 0xf6, 0x0d, 0xef, 0xee, 0xfe, 0x1c, 0xff, 0xe3, 0xe8, 0x81, 0xed,
  0x03, 0x07, 0x11, 0x2e, 0xfc, 0xdf, 0xf9, 0xd8, 0x0e, 0xe7, 0x09, 0x04,
  0xc5, 0xdb, 0xfc, 0xdc, 0xf6, 0xfb, 0xca, 0x09, 0xc3, 0xfd, 0xf5, 0xc3,
  0xf6, 0xfb, 0x02, 0x1a, 0xf4, 0x06, 0xdf, 0xf4, 0x05, 0x07, 0x03, 0x0c,
  0x2d, 0xe0, 0xec, 0x0b, 0x08, 0xe9, 0x10, 0xfd, 0x0a, 0xdb, 0xde, 0x4d,
  0xfe, 0xef, 0x05, 0xdb, 0xd1, 0xdb, 0x13, 0x01, 0x2a, 0xfd, 0xf9, 0xf8,
  0x1e, 0x33, 0xd0, 0xb3, 0xfc, 0xde, 0x20, 0xed, 0x03, 0xee, 0xf6, 0x08,
  0x06, 0xe3, 0x2d, 0x00, 0xce, 0x26, 0xf0, 0x19, 0x07, 0xd9, 0x11, 0xde,
  0x03, 0xed, 0x04, 0xfe, 0xfd, 0x30, 0x05, 0x14, 0x3f, 0x07, 0x29, 0x09,
  0x0d, 0x0a, 0xf7, 0x36, 0x02, 0x10, 0x24, 0xed, 0xf9, 0x13, 0xf8, 0xfc,
  0x0f, 0xe3, 0xf8, 0xfa, 0xf7, 0x25, 0xfc, 0xf5, 0x56, 0xe5, 0x18, 0x25,
  0xfc, 0x01, 0xf2, 0x81, 0xf3, 0xdc, 0x0a, 0x34, 0x23, 0x29, 0x16, 0x15,
  0x17, 0xdc, 0x31, 0xee, 0x11, 0xf0, 0x24, 0xf1, 0x01, 0xa1, 0x1d, 0x0e,
  0xff, 0xa7, 0xe3, 0x09, 0xef, 0xcb, 0x09, 0x02, 0x06, 0x06, 0xfe, 0xcb,
  0x1d, 0x02, 0xff, 0xe5, 0xbf, 0x01, 0xf5, 0x0a, 0xfb, 0xd3, 0x00, 0x16,
  0x07, 0xe0, 0xef, 0x03, 0x36, 0x20, 0x16, 0x0e, 0x25, 0x1b, 0xfc, 0x03,
  0x01, 0xca, 0x22, 0xe0, 0x12, 0xf9, 0x1e, 0xf2, 0x00, 0xf5, 0x10, 0x0a,
  0x03, 0x32, 0x0e, 0x2f, 0xea, 0xf1, 0xbf, 0xe2, 0xe2, 0x1e, 0x81, 0xb6,
  0x1d, 0xe6, 0x0b, 0x07, 0x33, 0x0d, 0x1c, 0xf7, 0x16, 0x01, 0x00, 0x05,
  0x0b, 0x17, 0xf1, 0x13, 0x36, 0xeb, 0xf4, 0x04, 0xf2, 0x0f, 0x07, 0x0e,
  0xf1, 0x17, 0x0b, 0xf1, 0x14, 0xc5, 0x01, 0xf9, 0x0e, 0x01, 0xfd, 0xc1,
  0xf6, 0x81, 0xfb, 0x00, 0x0d, 0xff, 0xfa, 0xfc, 0x0c, 0xdd, 0x1a, 0x04,
  0xf7, 0xd7, 0x2c, 0xfa, 0x13, 0x1b, 0xfd, 0xf8, 0x0b, 0x09, 0xe2, 0x00,
  0xfb, 0xfc, 0xe1, 0x1c, 0xdf, 0x0f, 0xf8, 0xff, 0x09, 0xfb, 0xf0, 0x10,
  0x02, 0xb5, 0xff, 0x0c, 0x04, 0x11, 0x07, 0x02, 0x01, 0xf7, 0x01, 0xf0,
  0x21, 0xf5, 0x08, 0x05, 0xf5, 0x0f, 0x06, 0x08, 0xe9, 0x0c, 0xf0, 0x17,
  0x24, 0xd2, 0x0d, 0x14, 0xf9, 0xf7, 0x11, 0xed, 0xd8, 0x0c, 0x01, 0xff,
  0x00, 0xcf, 0xe3, 0x16, 0x0d, 0x03, 0xff, 0x04, 0x0b, 0xfa, 0x06, 0xf1,
  0x09, 0x00, 0xf8, 0xd2, 0x04, 0xee, 0xaa, 0xf6, 0x04, 0x01, 0x02, 0xfe,
  0xda, 0xff, 0x07, 0xf2, 0xc9, 0x07, 0xe9, 0x03, 0xfa, 0xec, 0xfc, 0x08,
  0xd7, 0xfc, 0xe3, 0xf7, 0x81, 0xfe, 0x8d, 0xf1, 0xd8, 0x01, 0xea, 0xe2,
  0xf2, 0x02, 0xfe, 0x02, 0x08, 0xe9, 0xfe, 0xf8, 0xfb, 0x0a, 0xfe, 0xaa,
  0xfd, 0xc3, 0xf1, 0x11, 0x04, 0xf6, 0x04, 0x00, 0x06, 0x13, 0x09, 0xfc,
  0xc2, 0x03, 0xc3, 0xb3, 0x16, 0xf4, 0xe7, 0x08, 0xcf, 0xe6, 0x07, 0xe9,
  0xf0, 0x0a, 0x05, 0x02, 0xfd, 0x04, 0x13, 0x04, 0xf5, 0xee, 0x16, 0xf7,
  0xfa, 0xff, 0xfa, 0x05, 0xe4, 0xf8, 0xee, 0xb0, 0xda, 0x2e, 0x0f, 0xdb,
  0xed, 0xe5, 0x06, 0xe1, 0x1d, 0xff, 0x0d, 0x0b, 0x4a, 0x0c, 0x10, 0xce,
  0x0f, 0x2e, 0xa0, 0x2c, 0x81, 0xc2, 0xfa, 0x18, 0x14, 0xfb, 0xca, 0xd4,
  0x1c, 0x34, 0xf5, 0xf4, 0xfc, 0x09, 0xe8, 0x31, 0xde, 0xed, 0x19, 0xb3,
  0x1a, 0xe2, 0xe3, 0x94, 0x21, 0x1d, 0xdc, 0xdf, 0xfd, 0x13, 0xa8, 0x09,
  0xef, 0xe6, 0x11, 0xf5, 0xbc, 0xf1, 0xb7, 0xe5, 0xb6, 0xec, 0xd1, 0x00,
  0xfe, 0x95, 0xd6, 0x18, 0xf9, 0xe3, 0xf0, 0xe9, 0xf2, 0xdb, 0xea, 0xd1,
  0xe1, 0xd9, 0xf1, 0xeb, 0xb2, 0x28, 0xfc, 0x04, 0xf5, 0xc9, 0xb0, 0x14,
  0xb9, 0x12, 0xf0, 0xba, 0xe1, 0xc4, 0xb5, 0xf4, 0xe7, 0x19, 0x02, 0x02,
  0xd6, 0x00, 0x24, 0x18, 0x13, 0x0f, 0x0e, 0xfa, 0x06, 0xef, 0x0d, 0xee,
  0x11, 0x54, 0xc5, 0xdd, 0x0d, 0x1e, 0x21, 0xe5, 0x32, 0xf9, 0xfe, 0xfe,
  0x04, 0x79, 0x1c, 0x00, 0xdc, 0xdd, 0x13, 0x0b, 0xf8, 0x0e, 0x00, 0xef,
  0x25, 0xfe, 0x1b, 0xed, 0xeb, 0xa6, 0x06, 0x00, 0x07, 0x65, 0x2a, 0xe8,
  0x22, 0xee, 0x0d, 0xd4, 0x0b, 0x32, 0x10, 0x81, 0x06, 0xe3, 0xe5, 0x14,
  0x16, 0xeb, 0x0f, 0x61, 0xe5, 0x1e, 0xcd, 0xd0, 0xe1, 0xe8, 0x54, 0x00,
  0x34, 0xdf, 0x12, 0x29, 0x01, 0xf5, 0xf5, 0x2c, 0xec, 0xd4, 0xec, 0xed,
  0xf9, 0x24, 0xdf, 0x04, 0x09, 0x01, 0x0a, 0x25, 0x08, 0xd7, 0x15, 0xfb,
  0xfb, 0x02, 0x10, 0xea, 0x10, 0xf6, 0x17, 0x16, 0x12, 0xfe, 0x04, 0x0f,
  0xf7, 0x07, 0x15, 0x00, 0x03, 0x81, 0xf3, 0x0a, 0x17, 0xe9, 0xe3, 0xfd,
  0x1c, 0xde, 0x06, 0x22, 0xdf, 0x8f, 0x04, 0x12, 0x13, 0xd5, 0xf0, 0xfb,
  0x0b, 0x01, 0x0e, 0x1a, 0xda, 0xed, 0x30, 0xfe, 0x0b, 0x00, 0xdb, 0xff,
  0x0f, 0xfc, 0x05, 0x1a, 0x0e, 0x0b, 0x26, 0x25, 0x24, 0x19, 0x07, 0xdf,
  0xed, 0xf2, 0xf6, 0x05, 0xfe, 0x0a, 0x11, 0x0e, 0x1f, 0x0f, 0x16, 0xe4,
  0x05, 0xfb, 0x16, 0x22, 0xff, 0x0c, 0xf1, 0x0c, 0x0c, 0xef, 0x00, 0x27,
  0xe6, 0xe4, 0xcf, 0xf8, 0xfa, 0xc7, 0x0a, 0xf6, 0x2c, 0x00, 0xf3, 0x0a,
  0xf8, 0xf2, 0xf7, 0x2e, 0x0a, 0x0d, 0xfc, 0x2c, 0x05, 0xd4, 0xed, 0xed,
  0xf7, 0xf7, 0xd2, 0x0a, 0x09, 0xf8, 0x1c, 0xba, 0xfe, 0xfc, 0xf2, 0x19,
  0x18, 0xfa, 0x36, 0xc4, 0x05, 0x0b, 0xf3, 0x00, 0xd8, 0x01, 0x06, 0x10,
  0x81, 0xf9, 0x16, 0xf7, 0x0d, 0x05, 0x12, 0xf9, 0x00, 0xc8, 0xe7, 0xe8,
  0x1f, 0xf3, 0x0d, 0x06, 0xfd, 0xe2, 0xa5, 0xf0, 0xf4, 0x03, 0xbc, 0x13,
  0x0a, 0x0d, 0xb8, 0xdb, 0x21, 0xf3, 0xfa, 0x0f, 0x0a, 0x18, 0x17, 0x17,
  0x05, 0xfb, 0xf0, 0xfc, 0xf0, 0x07, 0xea, 0xf6, 0xf3, 0xd4, 0x1f, 0xf7,
  0xf8, 0xa8, 0xd3, 0xc2, 0x81, 0xee, 0x1b, 0x89, 0x27, 0x1e, 0xe8, 0x01,
  0xdd, 0xf1, 0x64, 0xf7, 0xfc, 0x02, 0x74, 0x15, 0xf4, 0xf6, 0x00, 0x07,
  0xe8, 0x84, 0x10, 0x12, 0xf2, 0xf4, 0xbc, 0x19, 0xf8, 0x0c, 0xfd, 0x9e,
  0xd1, 0x2c, 0xa0, 0xea, 0xdf, 0x10, 0xf1, 0xad, 0x10, 0x12, 0xff, 0x08,
  0x00, 0xff, 0x9b, 0x04, 0x1a, 0xf2, 0x16, 0xf8, 0xff, 0x07, 0xf4, 0xb5,
  0xf6, 0x01, 0x0d, 0xf9, 0x96, 0xf4, 0x07, 0xee, 0x0b, 0x03, 0xff, 0x1a,
  0xe5, 0x0a, 0x02, 0x05, 0xf7, 0x94, 0x2d, 0x14, 0x15, 0x02, 0xe4, 0xb1,
  0xf2, 0x03, 0xf9, 0xf8, 0xf4, 0x8e, 0x11, 0x10, 0x0e, 0xe3, 0xe7, 0xf4,
  0xe0, 0x0a, 0x09, 0xf1, 0x12, 0x81, 0x1f, 0xe7, 0x93, 0x07, 0x07, 0xe6,
  0xe2, 0x07, 0x09, 0xe2, 0x29, 0x12, 0xce, 0xce, 0x0b, 0x1f, 0xed, 0x03,
  0x1f, 0xf7, 0x18, 0xf9, 0xf8, 0xfc, 0xee, 0xf0, 0xd8, 0x19, 0xfd, 0x08,
  0x34, 0xfd, 0xf3, 0x0a, 0xff, 0xcb, 0x16, 0xd1, 0x0d, 0xf2, 0xf6, 0xef,
  0x0c, 0x05, 0x0d, 0xf1, 0xf4, 0x05, 0x11, 0x0e, 0xfb, 0x06, 0x17, 0x0b,
  0x13, 0xe9, 0x1f, 0xfd, 0xf4, 0xea, 0xf2, 0xf3, 0xbb, 0x00, 0x85, 0x09,
  0x0d, 0x04, 0x05, 0xec, 0x13, 0x03, 0xe8, 0xfd, 0x49, 0xee, 0x01, 0xfa,
  0x0d, 0x23, 0xf4, 0x10, 0x09, 0xe0, 0x0b, 0xff, 0xf2, 0xfb, 0x02, 0x02,
  0x13, 0xca, 0x27, 0x08, 0xea, 0x0a, 0x1a, 0x03, 0x1f, 0x19, 0x02, 0xf1,
  0xfa, 0x16, 0xf5, 0x1a, 0xf3, 0xdb, 0x38, 0x2a, 0x13, 0x00, 0xed, 0xec,
  0xe7, 0x35, 0xeb, 0x25, 0xea, 0x23, 0x21, 0x11, 0x08, 0x22, 0x3d, 0xff,
  0x11, 0x2a, 0x2e, 0x1a, 0xf0, 0x17, 0xfa, 0x23, 0xe5, 0x0b, 0x84, 0x24,
  0xbe, 0x7f, 0xfe, 0xfa, 0x0a, 0x29, 0x04, 0x01, 0xed, 0xee, 0xe1, 0x1a,
  0x1c, 0x0e, 0xf6, 0xff, 0xee, 0xa1, 0xf4, 0x22, 0x13, 0xc7, 0x20, 0xc7,
  0x47, 0x30, 0xa4, 0xf3, 0xce, 0x10, 0x00, 0x16, 0x1e, 0x5a, 0xf1, 0xb1,
  0x03, 0xc5, 0xf5, 0x32, 0x16, 0xe0, 0xfa, 0x1b, 0x29, 0xa3, 0xfd, 0xc2,
  0xce, 0xbf, 0xeb, 0xf9, 0xfd, 0x47, 0x11, 0xec, 0x01, 0xc4, 0xd8, 0x3b,
  0x15, 0xd3, 0x1b, 0x24, 0x13, 0x81, 0xdc, 0x05, 0xdd, 0xf8, 0xd5, 0x16,
  0x17, 0xcd, 0x0c, 0xe0, 0x06, 0xf0, 0xe1, 0x09, 0xea, 0xf7, 0x2e, 0xe7,
  0xee, 0x0f, 0x0c, 0x01, 0xdf, 0x00, 0x07, 0x0c, 0x0d, 0x0c, 0xe2, 0xcf,
  0x0c, 0xf7, 0x1c, 0xf3, 0x02, 0xd9, 0x05, 0xf4, 0x16, 0xee, 0xc4, 0xfb,
  0x06, 0xd4, 0x07, 0x53, 0xf7, 0x1e, 0x06, 0xda, 0xf5, 0x05, 0x18, 0xf6,
  0xee, 0xf4, 0xed, 0x18, 0x14, 0x26, 0xee, 0x1b, 0xc9, 0x02, 0x14, 0xf6,
  0xe8, 0x23, 0xea, 0x1f, 0xe8, 0xf6, 0xfe, 0xf2, 0xf9, 0xbb, 0x10, 0xb3,
  0xb1, 0x0f, 0xff, 0xc2, 0x09, 0x1e, 0x1e, 0xf6, 0x08, 0x05, 0x58, 0xa9,
  0xe5, 0x0e, 0x60, 0xfd, 0x04, 0x08, 0xcc, 0x05, 0x8d, 0xbe, 0xfc, 0xfe,
  0xf8, 0xf5, 0xa8, 0x2f, 0xfd, 0x07, 0xf4, 0xcc, 0xda, 0x4d, 0xd0, 0xf4,
  0xf2, 0x3c, 0xed, 0xf8, 0x0e, 0xfe, 0x01, 0xb4, 0xf7, 0xce, 0xe0, 0x20,
  0xfb, 0x02, 0x1a, 0xc6, 0xf9, 0xb1, 0xca, 0xcc, 0xa4, 0x01, 0x8d, 0xf0,
  0x81, 0x8d, 0x1e, 0x22, 0x04, 0xf2, 0x08, 0x0d, 0xac, 0xf2, 0x00, 0x3f,
  0x09, 0x82, 0x42, 0x17, 0x20, 0xdc, 0xfd, 0xc6, 0xc0, 0xf8, 0xf4, 0xbd,
  0x28, 0x8a, 0x10, 0x14, 0xfe, 0xe5, 0xe9, 0x06, 0x0f, 0x02, 0x0d, 0x05,
  0xee, 0x23, 0x9c, 0xee, 0x04, 0x10, 0xe9, 0xf2, 0x07, 0xed, 0xaa, 0xdd,
  0xf7, 0x0b, 0x1a, 0xf6, 0xf8, 0xb4, 0x1e, 0xe4, 0xee, 0x29, 0x01, 0xf0,
  0xa6, 0x0e, 0x0a, 0x0a, 0x2c, 0x81, 0xf0, 0xf5, 0x07, 0x0b, 0x02, 0xf7,
  0x1f, 0x07, 0x8f, 0x38, 0xd2, 0xd5, 0x17, 0x25, 0x08, 0xdd, 0xf6, 0x15,
  0xe1, 0xcf, 0x06, 0x11, 0xa0, 0xfe, 0x93, 0xd1, 0x05, 0x8b, 0xf8, 0x20,
  0x00, 0x1a, 0xec, 0xdb, 0x08, 0x2a, 0x2e, 0x8b, 0xbd, 0xed, 0x21, 0x13,
  0x02, 0x10, 0xc8, 0x20, 0xca, 0xfc, 0x0b, 0xa2, 0xfc, 0xe8, 0xb0, 0x1c,
  0x1a, 0x1e, 0x19, 0x0a, 0xe1, 0x0c, 0xd3, 0xc0, 0xd3, 0xf7, 0xe5, 0x00,
  0xf4, 0x04, 0xe0, 0x02, 0x0a, 0x06, 0xd4, 0xa2, 0xf9, 0xe3, 0xee, 0x10,
  0xe1, 0x07, 0x00, 0x0f, 0xfa, 0xf6, 0xec, 0xfa, 0xf6, 0xfa, 0x0c, 0xfc,
  0xff, 0x03, 0x0a, 0x0f, 0xfb, 0xc4, 0x0f, 0xd2, 0x15, 0x0e, 0x04, 0x0c,
  0xe8, 0xdf, 0x12, 0x0a, 0xfa, 0xed, 0xda, 0xf3, 0xd9, 0x06, 0x09, 0xeb,
  0x0e, 0x0f, 0xc2, 0xfa, 0x2d, 0x0a, 0xe2, 0x03, 0xfc, 0x09, 0xeb, 0x0a,
  0x01, 0x9a, 0x0d, 0x81, 0xf7, 0x02, 0xf9, 0xe6, 0x17, 0x09, 0x00, 0x07,
  0xff, 0x06, 0xd2, 0x02, 0xfb, 0x0e, 0xf5, 0x06, 0x04, 0xf6, 0xfa, 0xf6,
  0x03, 0x10, 0x16, 0x02, 0x0b, 0xcb, 0xe8, 0xe7, 0xa9, 0xab, 0xaa, 0x34,
  0xcf, 0x44, 0x1c, 0xfe, 0x05, 0xdd, 0xcb, 0x32, 0xeb, 0xd5, 0x0a, 0x35,
  0x4f, 0xee, 0xdf, 0xf5, 0xca, 0xeb, 0xdf, 0x17, 0xfb, 0xeb, 0xd1, 0xf1,
  0x37, 0xea, 0x12, 0xea, 0x0e, 0xfa, 0x15, 0xe6, 0x1a, 0x1d, 0x22, 0xe4,
  0xe2, 0x05, 0xfd, 0x43, 0xb8, 0xce, 0xa8, 0xe5, 0xec, 0xee, 0xf7, 0x26,
  0x16, 0xca, 0x25, 0x39, 0xbb, 0xe5, 0xa3, 0xf8, 0x13, 0x81, 0x29, 0x02,
  0xff, 0x07, 0x2f, 0xbf, 0x2e, 0xed, 0x18, 0x57, 0xbf, 0x0b, 0xbd, 0x28,
  0x48, 0xe9, 0xb4, 0x36, 0xe0, 0xe4, 0xee, 0xf7, 0x10, 0xf7, 0xde, 0x28,
  0x0a, 0x29, 0xe5, 0x0a, 0x22, 0xfe, 0x2e, 0x1a, 0x1c, 0x1a, 0xf7, 0xde,
  0x1e, 0x03, 0x29, 0x06, 0x20, 0x1b, 0x23, 0xe1, 0x0c, 0xe7, 0x34, 0xf6,
  0xfe, 0xf3, 0x8c, 0x2b, 0xf6, 0x65, 0x03, 0x81, 0x0c, 0xba, 0xdd, 0x0c,
  0x8f, 0xff, 0x1e, 0x14, 0xd7, 0xf4, 0xed, 0xab, 0x0c, 0x23, 0xe5, 0x04,
  0xfb, 0x0f, 0xfd, 0xf1, 0x26, 0x34, 0x1e, 0xf6, 0xed, 0x14, 0xeb, 0xf2,
  0xea, 0xe3, 0x02, 0xcd, 0xeb, 0xe5, 0xb5, 0x35, 0x05, 0xf1, 0x27, 0x3f,
  0x24, 0x0a, 0x19, 0xf7, 0xe2, 0x04, 0xea, 0x33, 0x6c, 0x0d, 0x57, 0xf7,
  0x0b, 0xdb, 0x01, 0xf7, 0xc4, 0xec, 0x0e, 0x26, 0xf4, 0xd6, 0x1b, 0xf5,
  0xfe, 0x16, 0x89, 0xf4, 0xfb, 0xf6, 0xfc, 0x27, 0x0a, 0x02, 0xfd, 0x2c,
  0x26, 0x08, 0xd8, 0x22, 0x1c, 0xc1, 0x1d, 0x0b, 0xbc, 0xc5, 0xb0, 0x19,
  0xc6, 0xc0, 0x08, 0x07, 0xff, 0x06, 0x0d, 0xe6, 0x05, 0x0f, 0x06, 0x11,
  0xcd, 0x14, 0x29, 0xd3, 0x91, 0x81, 0x07, 0xeb, 0xfe, 0x0f, 0x9f, 0xeb,
  0x32, 0x08, 0xfc, 0x19, 0xfb, 0x0b, 0x07, 0x15, 0x0f, 0xc0, 0xbc, 0xa4,
  0x02, 0x04, 0x18, 0x02, 0xef, 0x01, 0x08, 0x09, 0xf4, 0x41, 0x0d, 0x4d,
  0x15, 0x2b, 0xf4, 0x12, 0xe8, 0xcc, 0xb0, 0x16, 0x03, 0x08, 0xe1, 0x0a,
  0x0c, 0x07, 0xf1, 0x16, 0xdd, 0x94, 0x0a, 0x09, 0x1c, 0x04, 0xf3, 0xb8,
  0x25, 0x06, 0x0d, 0xf1, 0x1e, 0x0a, 0x14, 0xff, 0xf3, 0xfa, 0xfb, 0xff,
  0xf9, 0xf5, 0x08, 0xe1, 0xfc, 0x12, 0x0c, 0x81, 0xf9, 0xfb, 0xd3, 0xe3,
  0xff, 0x00, 0x12, 0x06, 0x06, 0xf1, 0xf2, 0xfc, 0xe0, 0xd1, 0x0a, 0xc2,
  0x05, 0xff, 0xc2, 0xfa, 0xeb, 0x13, 0xe7, 0xdd, 0x1b, 0xe1, 0xe8, 0x01,
  0xfd, 0xfc, 0x02, 0xef, 0x0b, 0xf4, 0x05, 0xfc, 0xf3, 0xf6, 0xf0, 0x0f,
  0x11, 0x07, 0x0b, 0xe2, 0x1d, 0xe9, 0x13, 0x15, 0x09, 0x11, 0x01, 0xf3,
  0xc4, 0x07, 0x12, 0x04, 0xf6, 0xf9, 0x0d, 0x07, 0x05, 0xfd, 0x0a, 0x0f,
  0xf3, 0xcc, 0x10, 0x12, 0xfb, 0x1b, 0xf5, 0x0b, 0xf7, 0xdb, 0xf4, 0xf7,
  0x05, 0x0e, 0x04, 0x0d, 0xf9, 0xfc, 0xe4, 0x0d, 0x81, 0xff, 0x94, 0xdf,
  0x6e, 0x32, 0x20, 0x27, 0x22, 0xc0, 0x3f, 0x31, 0x32, 0x06, 0x17, 0xf0,
  0xf0, 0x11, 0xba, 0xdd, 0xef, 0xe1, 0xe4, 0x1b, 0xc4, 0x30, 0xf1, 0xd3,
  0xdf, 0xfa, 0x1e, 0xc7, 0x2d, 0xf2, 0xa8, 0x11, 0x81, 0x27, 0xc4, 0xf4,
  0x2d, 0x0d, 0x0e, 0x8d, 0xf0, 0x02, 0xdb, 0xdd, 0x50, 0xe3, 0x0d, 0x19,
  0xba, 0xd9, 0x17, 0xd7, 0xb5, 0x0b, 0x30, 0xfa, 0x3a, 0x0a, 0x00, 0xd4,
  0x1d, 0x0b, 0xe5, 0x2d, 0xf4, 0xf8, 0x15, 0x1d, 0x24, 0xdf, 0xd7, 0xb8,
  0xe6, 0xcb, 0x51, 0x5b, 0x03, 0xfe, 0xe7, 0xbc, 0x38, 0x22, 0x00, 0x1a,
  0xd1, 0x8d, 0xe8, 0xd1, 0xd7, 0xe4, 0xeb, 0xd6, 0x16, 0xef, 0x1b, 0x02,
  0x22, 0x06, 0xff, 0x94, 0x06, 0x06, 0xe4, 0x00, 0xd4, 0x1a, 0xbe, 0xbf,
  0xce, 0x04, 0x1f, 0x39, 0x0e, 0xa9, 0x92, 0xf2, 0x1e, 0x18, 0xd7, 0x19,
  0x33, 0x26, 0xf0, 0x27, 0xf0, 0x02, 0x04, 0x03, 0x00, 0xf9, 0x1c, 0x81,
  0xd3, 0x01, 0xdc, 0x16, 0xf2, 0x00, 0x1a, 0x06, 0xf4, 0x11, 0x49, 0xf3,
  0xbf, 0xec, 0x8e, 0xf5, 0xcb, 0xd2, 0x1b, 0x87, 0xf8, 0xf6, 0xa5, 0x07,
  0xd2, 0xe4, 0x41, 0xd6, 0x8c, 0xf5, 0xda, 0x2e, 0xc1, 0xfd, 0x03, 0xf3,
  0x81, 0xf4, 0x03, 0x04, 0x11, 0xd5, 0x01, 0x17, 0xea, 0xfa, 0xff, 0xfd,
  0xe9, 0xe7, 0xe4, 0xeb, 0xe4, 0xfe, 0xdb, 0x19, 0x00, 0xd7, 0x06, 0xe0,
  0xb0, 0x1a, 0xff, 0xe7, 0xee, 0x15, 0x03, 0xf4, 0xf3, 0xfc, 0xf6, 0xfd,
  0xf2, 0x06, 0x14, 0xf2, 0xfe, 0xe1, 0x01, 0xfd, 0x09, 0xf1, 0xa3, 0xf7,
  0x15, 0xf9, 0xc5, 0xcc, 0x0b, 0xfd, 0xf3, 0x07, 0xfb, 0x03, 0xfc, 0x09,
  0xea, 0xf3, 0x00, 0xf3, 0x03, 0x03, 0xfc, 0xff, 0x0c, 0x06, 0xdb, 0x02,
  0xc9, 0xf4, 0xd4, 0xea, 0x00, 0x02, 0x01, 0xf6, 0x04, 0xe9, 0x07, 0xf9,
  0x10, 0x0c, 0x81, 0xee, 0xe2, 0x09, 0x03, 0x06, 0xd3, 0xef, 0xdb, 0xfa,
  0x05, 0xfa, 0xfc, 0x03, 0xd5, 0x00, 0x0b, 0x09, 0xf8, 0x11, 0x00, 0x01,
  0x02, 0xfe, 0xcb, 0x18, 0xed, 0x0d, 0xf8, 0x3f, 0x11, 0x03, 0xe7, 0x12,
  0xf4, 0x0d, 0x0c, 0x05, 0xff, 0xf7, 0x0c, 0xe0, 0xee, 0xbd, 0x08, 0xca,
  0xfb, 0x07, 0xc4, 0x29, 0xf3, 0xf8, 0x0c, 0xe6, 0x28, 0x16, 0xd6, 0x06,
  0xf9, 0x07, 0xf7, 0x03, 0xd9, 0x12, 0xeb, 0x49, 0xf7, 0x1c, 0xdf, 0x02,
  0x20, 0x01, 0xfb, 0x0d, 0xd8, 0x0d, 0xf8, 0xf4, 0x09, 0x23, 0x14, 0xda,
  0x26, 0x08, 0x33, 0xde, 0x5c, 0xb3, 0x72, 0xf1, 0x0a, 0xf4, 0x09, 0xe8,
  0xf6, 0x2b, 0xd8, 0xf4, 0xf4, 0xff, 0x12, 0x0d, 0xf8, 0xf4, 0x0b, 0x00,
  0x81, 0x28, 0x06, 0x0d, 0x1d, 0xfc, 0xf1, 0x37, 0x06, 0xf9, 0xb6, 0xdd,
  0x0c, 0xfb, 0xf9, 0x0c, 0xff, 0x51, 0x29, 0xdc, 0xe2, 0xb0, 0xea, 0x42,
  0xb4, 0xfa, 0x06, 0x52, 0x1e, 0x25, 0xcc, 0xb9, 0xf5, 0xad, 0x31, 0x32,
  0x0a, 0xcd, 0x0c, 0xf8, 0x2c, 0xdf, 0xef, 0x05, 0x09, 0x15, 0xef, 0x07,
  0xeb, 0x4c, 0x57, 0xa3, 0x15, 0xfd, 0x2d, 0x19, 0x02, 0x8a, 0x05, 0xea,
  0x22, 0x49, 0x03, 0x0d, 0x07, 0x14, 0x82, 0x81, 0x10, 0xa3, 0xdd, 0x93,
  0x21, 0x08, 0xf9, 0x21, 0xdc, 0x3b, 0x15, 0xe7, 0xd0, 0x13, 0xe8, 0x21,
  0x2b, 0x2e, 0x12, 0xb0, 0x4f, 0xe5, 0xfa, 0x3b, 0x00, 0xe5, 0xe5, 0xd8,
  0xc7, 0x23, 0x0a, 0x32, 0xe2, 0x34, 0x14, 0xf9, 0xd8, 0xf4, 0xdc, 0xbf,
  0x14, 0xe4, 0x0d, 0xfd, 0x02, 0xa0, 0x1c, 0xf8, 0xf1, 0x0c, 0x15, 0xfb,
  0x05, 0x13, 0x17, 0x12, 0xef, 0x4b, 0x13, 0x1b, 0xfe, 0xce, 0xe6, 0xf9,
  0x26, 0x16, 0x08, 0xd3, 0xea, 0x30, 0xf7, 0x06, 0x11, 0x25, 0x00, 0x1d,
  0x22, 0x90, 0x02, 0x0c, 0x2b, 0x9c, 0xe4, 0xf8, 0x00, 0xde, 0x14, 0xec,
  0xfb, 0xc9, 0xf3, 0x18, 0xc7, 0xe0, 0xb9, 0xdc, 0xf6, 0x0b, 0xf8, 0xfe,
  0xb2, 0xc5, 0xd8, 0xe5, 0x1d, 0xc0, 0x17, 0x0b, 0xf4, 0x88, 0x02, 0x19,
  0xcc, 0xd1, 0xf0, 0x0a, 0x04, 0xf1, 0xa7, 0x0c, 0xfb, 0xec, 0xf1, 0x05,
  0x0e, 0xe1, 0x81, 0x05, 0xf4, 0xdc, 0xfc, 0xd6, 0x05, 0xa5, 0xdf, 0xe8,
  0x16, 0xe7, 0xf0, 0x08, 0x09, 0x83, 0x24, 0xc7, 0xe7, 0xfd, 0xed, 0x02,
  0xe6, 0xeb, 0x15, 0x26, 0xf0, 0xe9, 0x0b, 0xa8, 0x39, 0xfa, 0xc2, 0x0c,
  0x03, 0x19, 0x1e, 0x90, 0x0e, 0x12, 0x0c, 0x08, 0x15, 0x0c, 0x83, 0x18,
  0x2c, 0xb4, 0x00, 0x18, 0x07, 0xfd, 0x1d, 0x96, 0x04, 0xef, 0xf8, 0x13,
  0xf3, 0xf4, 0xfa, 0x23, 0xa3, 0x81, 0x0f, 0xef, 0xf4, 0xf1, 0x0a, 0xed,
  0x1b, 0x06, 0x0c, 0xfc, 0xfd, 0xfb, 0xf0, 0x1d, 0xe5, 0x01, 0x0a, 0xe2,
  0x32, 0xe6, 0x08, 0xff, 0xfc, 0x0e, 0x0b, 0xdd, 0xff, 0x18, 0xd3, 0x13,
  0xef, 0x22, 0xfd, 0x35, 0xfa, 0xa3, 0x18, 0x1f, 0x11, 0xfd, 0xf6, 0x18,
  0xf4, 0xe7, 0xf4, 0x06, 0x03, 0xf3, 0xfd, 0xf7, 0x0d, 0x06, 0x08, 0xfc,
  0x0e, 0x01, 0xf0, 0xfb, 0xf6, 0xf6, 0x0c, 0xeb, 0x0d, 0xde, 0xfe, 0x08,
  0xfa, 0xc6, 0xfc, 0xfd, 0xfa, 0x81, 0x03, 0x08, 0xdd, 0x8d, 0x01, 0x0a,
  0x18, 0xeb, 0xfb, 0x07, 0x07, 0xfd, 0x12, 0x0f, 0xfc, 0x05, 0x12, 0xff,
  0xf4, 0x00, 0xd3, 0x01, 0x0d, 0xee, 0x0e, 0x0b, 0xfe, 0x01, 0x03, 0x03,
  0x03, 0x0f, 0x03, 0xf4, 0xf7, 0x08, 0xf2, 0x0b, 0xf9, 0x04, 0x07, 0x0c,
  0x16, 0xfb, 0x11, 0x08, 0x05, 0x00, 0x0e, 0xfd, 0x02, 0x07, 0xde, 0xfe,
  0x0e, 0x04, 0x05, 0x1f, 0x0f, 0x09, 0xe6, 0x09, 0x3c, 0xe2, 0x0d, 0xf0,
  0xc8, 0xe8, 0x02, 0x2b, 0x03, 0x40, 0xfc, 0x2c, 0xd8, 0x2d, 0x26, 0x3f,
  0xf1, 0xfe, 0x09, 0x81, 0x5c, 0xfc, 0x59, 0x13, 0x1f, 0xe9, 0xbe, 0x14,
  0xea, 0x08, 0xfd, 0xd9, 0xfb, 0xf7, 0x01, 0xf0, 0x19, 0x36, 0xf4, 0xdf,
  0x01, 0x1b, 0xe7, 0x05, 0xcf, 0x15, 0x03, 0x2d, 0x12, 0x26, 0xe3, 0xfb,
  0xdf, 0x16, 0xf5, 0xff, 0xd7, 0xcb, 0x24, 0xb0, 0x34, 0x13, 0x06, 0xce,
  0x1c, 0x03, 0xf8, 0x23, 0xef, 0xb9, 0x2f, 0xed, 0x2c, 0x49, 0xf5, 0x2e,
  0x19, 0xe2, 0xe6, 0x2c, 0xf4, 0xa7, 0x32, 0x00, 0x01, 0x0c, 0x20, 0xf9,
  0x0e, 0xed, 0xff, 0x04, 0x25, 0x2c, 0x0a, 0xf2, 0x1c, 0x33, 0xe3, 0x08,
  0xbb, 0xd4, 0x83, 0xe1, 0x19, 0xc2, 0xe5, 0x17, 0x11, 0xe3, 0xfa, 0xdf,
  0xfa, 0xdc, 0xe8, 0x38, 0x0b, 0x34, 0xe8, 0xed, 0xf8, 0x20, 0x26, 0xe2,
  0xb7, 0xb1, 0xf9, 0x13, 0xda, 0xd0, 0x15, 0x81, 0x1a, 0xf0, 0x10, 0xeb,
  0xd8, 0xff, 0x11, 0xed, 0x2c, 0x28, 0xee, 0x81, 0xe5, 0x39, 0xfd, 0x1f,
  0x1d, 0x1e, 0x12, 0xed, 0x2c, 0xe9, 0xf5, 0x28, 0x17, 0x0c, 0x40, 0x22,
  0x14, 0xf4, 0xf7, 0xd9, 0x12, 0xff, 0xf9, 0x14, 0x22, 0xfc, 0x0a, 0x08,
  0x9f, 0x1d, 0xfc, 0xed, 0x1a, 0x9e, 0xa8, 0x37, 0xff, 0x06, 0xd8, 0xa1,
  0xdf, 0xf4, 0xa6, 0x0f, 0x0b, 0x06, 0xa9, 0xe6, 0xe0, 0xed, 0xf1, 0x28,
  0xea, 0xfd, 0x08, 0xcc, 0xcd, 0x26, 0xfe, 0xe6, 0x1e, 0x1b, 0x12, 0x81,
  0x07, 0xf5, 0xc5, 0xf4, 0xd6, 0x0a, 0x31, 0x0b, 0xf5, 0xa9, 0x13, 0x16,
  0x03, 0xfa, 0x01, 0x0b, 0x35, 0xdc, 0x0e, 0x0e, 0xfe, 0xfd, 0xfa, 0xea,
  0xf4, 0x10, 0xed, 0xfe, 0xf7, 0xd5, 0x30, 0xfe, 0x17, 0x00, 0x05, 0xaa,
  0x0d, 0x21, 0xe4, 0x15, 0xf2, 0xf1, 0xf0, 0xce, 0xfb, 0x0f, 0xf3, 0xea,
  0x01, 0xff, 0xe9, 0x02, 0x23, 0x24, 0xe0, 0xff, 0xe3, 0x1c, 0x04, 0x12,
  0xf2, 0x04, 0x0f, 0xf4, 0xe7, 0x0f, 0x06, 0x0c, 0xda, 0xf2, 0xfb, 0x0c,
  0xfb, 0x0e, 0xff, 0x85, 0x02, 0x13, 0xf4, 0x1c, 0xff, 0x34, 0x3b, 0x42,
  0xfa, 0xfd, 0x02, 0xce, 0xc7, 0x1f, 0x1a, 0x9d, 0xd8, 0xc7, 0xc5, 0xc4,
  0xe0, 0xe5, 0xf6, 0xe7, 0x00, 0xff, 0xec, 0x0b, 0x81, 0xa2, 0x1f, 0x92,
  0x38, 0xf6, 0x97, 0x14, 0x94, 0x04, 0xa1, 0xc5, 0x44, 0x96, 0xa0, 0x45,
  0x32, 0x18, 0x10, 0x26, 0xfc, 0x03, 0xfe, 0x02, 0xf2, 0x03, 0x8b, 0x0b,
  0x13, 0x01, 0x24, 0xe4, 0x25, 0xd6, 0x25, 0xfe, 0x45, 0x13, 0x53, 0x1c,
  0xe0, 0xf9, 0x3c, 0xe5, 0xf9, 0x98, 0x20, 0x0c, 0x18, 0xfd, 0x6a, 0x07,
  0x0f, 0x9d, 0xef, 0x2b, 0xec, 0x01, 0xdc, 0xee, 0x14, 0xa7, 0xf2, 0x3e,
  0x35, 0x21, 0xd9, 0x10, 0xb5, 0xbf, 0x17, 0x05, 0x06, 0xe3, 0x1a, 0x05,
  0x01, 0xeb, 0xeb, 0x39, 0x00, 0x10, 0x17, 0x22, 0x1f, 0xe0, 0xf2, 0xf5,
  0x15, 0xbb, 0xf0, 0x0b, 0x17, 0xf1, 0x15, 0xc0, 0x0b, 0xf1, 0x09, 0x0e,
  0x02, 0x10, 0x45, 0xd6, 0xfd, 0x2b, 0xfc, 0xe2, 0x19, 0xf3, 0x00, 0x27,
  0xb2, 0xd5, 0x0f, 0xe1, 0xf2, 0x1f, 0x10, 0x04, 0x29, 0xaa, 0xd1, 0xc1,
  0x09, 0xdd, 0xf9, 0x12, 0x21, 0xcf, 0xd8, 0x15, 0xff, 0x12, 0x8e, 0xfb,
  0xec, 0x17, 0xcd, 0x04, 0x22, 0x0f, 0x2a, 0x09, 0x25, 0x00, 0x0a, 0x1e,
  0xf3, 0x20, 0xea, 0x09, 0x81, 0x1b, 0xf4, 0x0b, 0x07, 0xf9, 0xfc, 0x03,
  0xb6, 0xb6, 0xda, 0x01, 0xe4, 0x0c, 0x00, 0xf8, 0x29, 0x0e, 0xfc, 0x0a,
  0x0e, 0xf6, 0xfb, 0x02, 0x0c, 0xf2, 0xf2, 0xf4, 0xd0, 0x00, 0xf0, 0xfa,
  0x02, 0xea, 0x06, 0xed, 0x09, 0xf6, 0xdc, 0xde, 0x0e, 0xf4, 0x1c, 0x0b,
  0x81, 0x14, 0xe6, 0xfa, 0xfb, 0xe1, 0x1d, 0xd7, 0xf1, 0x12, 0x05, 0x06,
  0x18, 0x12, 0xf4, 0xe1, 0x0a, 0x0d, 0xf8, 0xeb, 0xd8, 0x08, 0x0c, 0xfc,
  0x07, 0x0e, 0x02, 0xff, 0xf4, 0xf8, 0x01, 0x15, 0x05, 0xfd, 0x09, 0xf9,
  0x0e, 0xee, 0xdc, 0xef, 0xf8, 0xf0, 0x0b, 0xe0, 0x3c, 0xf9, 0xf6, 0xa7,
  0x05, 0x0b, 0x00, 0x06, 0xf0, 0xf6, 0x08, 0xf3, 0xfa, 0x10, 0x17, 0xfb,
  0xdf, 0x00, 0xf9, 0xf9, 0x09, 0xfb, 0xef, 0xff, 0xc9, 0xf2, 0x18, 0xff,
  0xeb, 0xfc, 0xf3, 0xf4, 0x1c, 0xf7, 0xf7, 0x0f, 0x0d, 0xef, 0xbb, 0xf1,
  0xbc, 0xff, 0x31, 0x0c, 0xeb, 0xf3, 0xd8, 0x0a, 0xf4, 0x27, 0x00, 0x14,
  0x19, 0xfe, 0x02, 0x01, 0xfc, 0xfd, 0xd6, 0xef, 0x0d, 0x24, 0xf8, 0xf8,
  0xf6, 0xa2, 0x0e, 0x28, 0xf0, 0xf6, 0x14, 0xde, 0x09, 0xe9, 0xff, 0xf5,
  0xef, 0xfe, 0x14, 0xd6, 0x1f, 0x00, 0x09, 0xe9, 0x06, 0xe1, 0xf4, 0x32,
  0x49, 0x05, 0x81, 0xe4, 0x0a, 0x23, 0xff, 0xf7, 0x18, 0xff, 0x09, 0xfb,
  0x1a, 0x19, 0xfd, 0x10, 0xe7, 0xfe, 0xfe, 0x11, 0x0d, 0xfa, 0x1e, 0xea,
  0x08, 0xdb, 0xf0, 0xee, 0xfd, 0xff, 0x06, 0xd4, 0xe6, 0x09, 0x06, 0xf9,
  0xe8, 0x10, 0x05, 0x01, 0x03, 0xf2, 0x02, 0xf7, 0x04, 0xb6, 0xf4, 0xb5,
  0x10, 0x00, 0x10, 0x1b, 0x0a, 0xde, 0xf9, 0xec, 0x14, 0x07, 0x0a, 0x15,
  0x9b, 0xf3, 0x23, 0x02, 0xe2, 0x28, 0xff, 0x08, 0x18, 0xfd, 0xb7, 0x12,
  0xe6, 0xe9, 0x22, 0x01, 0xeb, 0x03, 0x09, 0x96, 0x9a, 0x1c, 0xd2, 0xfe,
  0x0e, 0x15, 0xf6, 0xf1, 0xee, 0xda, 0x05, 0xed, 0xda, 0xd6, 0x10, 0x00,
  0x14, 0xfb, 0xc9, 0xfa, 0xfe, 0x14, 0x81, 0xfd, 0x10, 0x10, 0x0c, 0xf4,
  0x03, 0x9c, 0xfa, 0x0c, 0xf9, 0xed, 0x09, 0x0b, 0xe2, 0xe9, 0xeb, 0xe7,
  0xf5, 0xf4, 0x23, 0xec, 0x2c, 0x5c, 0x47, 0x0a, 0xf9, 0xff, 0xad, 0x0e,
  0x10, 0x0c, 0xa6, 0x02, 0xf3, 0x93, 0xb9, 0xf1, 0xf1, 0x08, 0xff, 0xf0,
  0xfb, 0xd7, 0x09, 0xcf, 0xd5, 0x06, 0x81, 0x2d, 0x28, 0x97, 0xff, 0xf6,
  0x01, 0xf4, 0xf5, 0xf3, 0xe6, 0x98, 0x47, 0x06, 0x00, 0x21, 0x07, 0xe8,
  0xf8, 0x04, 0x40, 0xfc, 0xf8, 0xdc, 0x1b, 0x10, 0x10, 0x08, 0xe8, 0x0b,
  0xf0, 0x18, 0x14, 0x51, 0x0c, 0x68, 0xfc, 0xa0, 0xf7, 0x14, 0x0b, 0xe2,
  0x04, 0xf7, 0xea, 0x04, 0xfc, 0x55, 0x43, 0xf5, 0xb1, 0x07, 0x17, 0x01,
  0xf3, 0x02, 0x05, 0x18, 0x81, 0xf2, 0x34, 0x02, 0x05, 0x00, 0x1e, 0xf3,
  0xfa, 0x06, 0x16, 0x13, 0xbd, 0xed, 0x17, 0x22, 0x11, 0x01, 0x03, 0x10,
  0x0c, 0x20, 0x0a, 0x15, 0xde, 0xf2, 0x00, 0xf7, 0xfc, 0xf7, 0x20, 0x20,
  0xf1, 0x06, 0xf6, 0xff, 0xf5, 0xfe, 0x1c, 0x81, 0x13, 0x04, 0x05, 0x09,
  0x12, 0x01, 0x1a, 0xfe, 0x01, 0x17, 0x0e, 0xe2, 0x0b, 0x0f, 0xfa, 0x01,
  0x14, 0x22, 0x11, 0x0e, 0x07, 0x0d, 0x07, 0x02, 0x14, 0x12, 0x04, 0x1b,
  0xf7, 0x10, 0x0f, 0x0b, 0x1d, 0x13, 0x04, 0x03, 0x14, 0x02, 0x0f, 0x02,
  0x0d, 0xf9, 0x00, 0x1f, 0xb7, 0x21, 0x05, 0xe9, 0x13, 0xf3, 0x0e, 0xff,
  0x02, 0xfe, 0xea, 0xe8, 0x0b, 0x08, 0xfa, 0x0e, 0xed, 0x14, 0x18, 0x14,
  0x4b, 0xd0, 0x00, 0x32, 0xdb, 0xf0, 0xf6, 0x35, 0xd8, 0xe4, 0x20, 0x48,
  0x03, 0xf5, 0x06, 0xf6, 0xf9, 0xcf, 0x2b, 0x02, 0x03, 0x37, 0x02, 0xf1,
  0xe8, 0xf8, 0xaf, 0xb8, 0xfd, 0x16, 0x11, 0xf1, 0xe8, 0x01, 0xdb, 0x14,
  0xef, 0x29, 0xd2, 0x04, 0x31, 0x15, 0xeb, 0x25, 0x38, 0x1d, 0xfe, 0x19,
  0x21, 0x81, 0xfe, 0xe3, 0x12, 0xfd, 0x09, 0x0f, 0x12, 0xfe, 0x38, 0x01,
  0xf6, 0xdf, 0x11, 0xef, 0xf5, 0xee, 0x11, 0xe1, 0xe2, 0xe8, 0x01, 0xef,
  0x33, 0xd6, 0xaf, 0x31, 0x11, 0x05, 0xf7, 0xf8, 0xef, 0x0f, 0xef, 0xad,
  0x0f, 0xf8, 0xfa, 0xf4, 0x22, 0xdd, 0xe7, 0xfc, 0xfa, 0x0e, 0x39, 0xeb,
  0xa7, 0x0d, 0xe2, 0x27, 0x23, 0x84, 0x06, 0xcd, 0x0e, 0x3d, 0x0c, 0xd2,
  0x0d, 0xf9, 0x08, 0x11, 0x0f, 0x1a, 0x19, 0x1a, 0xf0, 0x33, 0x35, 0x01,
  0x14, 0x39, 0x00, 0x09, 0xea, 0xab, 0x13, 0xf4, 0x0b, 0x1d, 0x13, 0xea,
  0x3d, 0xea, 0xfe, 0xd7, 0xf7, 0xd8, 0x1d, 0xe1, 0x01, 0x19, 0xe0, 0x18,
  0x14, 0xe6, 0xfb, 0x31, 0x29, 0x16, 0x3f, 0x27, 0x3c, 0x08, 0x10, 0xdc,
  0xeb, 0x02, 0xdb, 0xea, 0x25, 0xb6, 0xf0, 0xff, 0xe4, 0x08, 0xf9, 0xf8,
  0xfb, 0xe8, 0xe8, 0x13, 0x08, 0x32, 0x27, 0x81, 0x8a, 0x0f, 0x26, 0xf8,
  0xdf, 0xe5, 0xf0, 0xcc, 0x1a, 0xe7, 0x0d, 0xe9, 0x03, 0xf4, 0xff, 0xfb,
  0x00, 0xf2, 0x02, 0xc4, 0x02, 0xf7, 0xf6, 0xaf, 0xf6, 0xf4, 0xff, 0xba,
  0xf8, 0x06, 0xf4, 0xdb, 0xfe, 0xfa, 0x11, 0x0e, 0xf2, 0xfa, 0xf7, 0x00,
  0xfc, 0xdd, 0xff, 0xfd, 0x02, 0xfd, 0x02, 0x00, 0xc4, 0x0a, 0xfc, 0x03,
  0xf3, 0xfd, 0x00, 0x05, 0x05, 0xfc, 0x05, 0xff, 0xf7, 0x03, 0xfe, 0xf3,
  0x03, 0xfb, 0x0b, 0xf5, 0xfb, 0xfe, 0x02, 0x02, 0x0b, 0x03, 0x08, 0xfe,
  0x08, 0x00, 0x08, 0xfb, 0xfb, 0xf3, 0x03, 0xf4, 0x81, 0xaf, 0x08, 0xaa,
  0x05, 0x04, 0x08, 0x04, 0x05, 0xf8, 0x01, 0x04, 0xf6, 0xfe, 0xfd, 0xfc,
  0xf8, 0x0b, 0xff, 0xe4, 0x0d, 0x00, 0x0a, 0x06, 0x0b, 0x21, 0xc3, 0x14,
  0xd7, 0x1e, 0x0a, 0x28, 0x2b, 0xac, 0xcb, 0x66, 0x6e, 0x0f, 0xee, 0xf3,
  0xea, 0xf1, 0x0b, 0xe0, 0x54, 0xe1, 0x2a, 0x22, 0x06, 0x65, 0xfb, 0x20,
  0x09, 0xc6, 0x23, 0x0a, 0x0e, 0xe4, 0x81, 0xe8, 0x1a, 0xf2, 0x49, 0x0b,
  0x9e, 0xf5, 0x55, 0x1d, 0x4f, 0xef, 0x19, 0x16, 0x2e, 0x08, 0xf6, 0x2f,
  0xea, 0x3c, 0x14, 0xf8, 0x2f, 0xda, 0x47, 0x1e, 0x00, 0x22, 0x1b, 0x2d,
  0x02, 0x0d, 0xed, 0xb9, 0xef, 0x1b, 0x11, 0xd9, 0x22, 0x26, 0x1a, 0x3c,
  0x95, 0xe0, 0x31, 0x0b, 0x4c, 0x00, 0xe6, 0xf7, 0x3d, 0x20, 0x14, 0xa7,
  0xfd, 0xd4, 0x07, 0x09, 0x1c, 0x1c, 0x12, 0x15, 0x30, 0x05, 0xe9, 0x13,
  0xcd, 0x0f, 0x43, 0x44, 0x61, 0x03, 0x1a, 0xf3, 0x7f, 0xd8, 0xe3, 0xf2,
  0x53, 0xcf, 0xe4, 0xb4, 0xae, 0xed, 0xd2, 0xe6, 0xd1, 0xf2, 0xcb, 0xd1,
  0xcc, 0xc0, 0x0e, 0x18, 0xe4, 0xd5, 0x11, 0x02, 0xd2, 0x27, 0x09, 0x54,
  0x05, 0xa3, 0x2c, 0xec, 0xf7, 0x04, 0x31, 0xdd, 0xd7, 0xd6, 0xcb, 0x09,
  0x13, 0xbf, 0xd5, 0xee, 0x4d, 0x0d, 0x21, 0xd8, 0x01, 0xac, 0xc9, 0x18,
  0xf2, 0x19, 0xee, 0xc8, 0xcb, 0x10, 0x18, 0xcf, 0xec, 0x3e, 0xa3, 0xf9,
  0xc1, 0xc7, 0x20, 0xe9, 0x55, 0x74, 0xce, 0xd8, 0xf2, 0xcc, 0x48, 0xe8,
  0x12, 0xfe, 0xa8, 0xd5, 0x8b, 0x00, 0x00, 0x00, 0x22, 0xd2, 0xff, 0xff,
  0x04, 0x00, 0x00, 0x00, 0xd5, 0x1b, 0x00, 0x00, 0xd5, 0x05, 0xd9, 0xa5,
  0xf8, 0xfc, 0xf3, 0x17, 0xfe, 0x4e, 0x09, 0x13, 0xf4, 0xda, 0xc0, 0xed,
  0xe5, 0x2c, 0xec, 0xe8, 0xf8, 0x0b, 0xee, 0xa2, 0x3a, 0x0b, 0x13, 0xe7,
  0xdc, 0x0a, 0xeb, 0xea, 0xb6, 0xfc, 0xdc, 0xf7, 0xe7, 0xf5, 0xd9, 0x11,
  0x0f, 0x24, 0xe7, 0xca, 0xf8, 0x2d, 0x0b, 0x81, 0xcb, 0x07, 0xd4, 0xfb,
  0xfe, 0xeb, 0x89, 0xce, 0xc2, 0x04, 0xd4, 0x33, 0xff, 0x03, 0xd4, 0xf2,
  0x3d, 0x36, 0xce, 0x37, 0xfd, 0x05, 0x0a, 0xfe, 0x33, 0xfe, 0xfa, 0x0b,
  0x01, 0xfc, 0xce, 0xf9, 0x05, 0x06, 0x09, 0x03, 0xf0, 0x03, 0xff, 0x04,
  0xe8, 0xeb, 0x08, 0xff, 0xe7, 0x01, 0x05, 0xfb, 0x05, 0xeb, 0xf0, 0x9d,
  0xf6, 0xcb, 0xf8, 0xff, 0x17, 0x05, 0xdf, 0xfc, 0x02, 0xba, 0x06, 0xf6,
  0x0a, 0xfb, 0x0a, 0x1e, 0x03, 0xf4, 0x0b, 0xdd, 0x13, 0x03, 0xf6, 0xf7,
  0x02, 0x81, 0x01, 0xf9, 0x06, 0xc2, 0xa0, 0xd6, 0xfc, 0xd1, 0x19, 0x02,
  0xf6, 0x06, 0xe0, 0x0e, 0xf8, 0xfc, 0x04, 0xe9, 0x10, 0xf9, 0xfe, 0xc6,
  0x02, 0x01, 0xff, 0x07, 0xfb, 0x28, 0xfc, 0xff, 0xfc, 0xf9, 0xf9, 0xed,
  0xfb, 0xf3, 0xf8, 0xfe, 0xfa, 0xf7, 0xfa, 0xce, 0xf2, 0x01, 0xff, 0xf5,
  0x0b, 0xb0, 0x02, 0x00, 0xf7, 0xfa, 0xe9, 0x19, 0xd9, 0xff, 0xe2, 0xf8,
  0xed, 0xf6, 0xee, 0xd0, 0xef, 0xee, 0xfd, 0x06, 0xf7, 0xef, 0xee, 0x04,
  0x01, 0xb7, 0xfc, 0xdf, 0xf8, 0x01, 0xec, 0x07, 0xec, 0xef, 0xee, 0xd0,
  0x01, 0xfc, 0xfc, 0xf9, 0xfc, 0xef, 0xfa, 0x08, 0xe4, 0x81, 0xf3, 0xff,
  0xf3, 0xfb, 0x13, 0xf9, 0xfa, 0xf6, 0xf9, 0xe2, 0x0b, 0x08, 0xf5, 0xe8,
  0x05, 0x04, 0x1e, 0x00, 0x01, 0xf5, 0xf8, 0x0e, 0xb5, 0x08, 0xa9, 0x00,
  0x11, 0xd1, 0x04, 0xf0, 0x15, 0x81, 0xfd, 0xd8, 0x02, 0xf5, 0xf3, 0xd6,
  0x0c, 0xf1, 0x01, 0xd9, 0xd8, 0xad, 0xa9, 0x00, 0xfc, 0xc4, 0x23, 0xcd,
  0xe1, 0x2b, 0x04, 0xfe, 0x96, 0x0a, 0x00, 0xa1, 0x08, 0x01, 0x06, 0x24,
  0xc0, 0x0e, 0xff, 0xfa, 0x07, 0xff, 0xef, 0x15, 0x0d, 0xf6, 0x05, 0xff,
  0x0c, 0xee, 0x06, 0xed, 0xee, 0x00, 0xfd, 0xd1, 0xf7, 0x51, 0x36, 0x81,
  0x00, 0xf8, 0x08, 0xfe, 0x02, 0x28, 0x06, 0x02, 0xf5, 0xe4, 0xee, 0xf3,
  0x05, 0xf0, 0x0a, 0xed, 0xf1, 0xfd, 0xee, 0xf4, 0xda, 0x0f, 0x8a, 0x03,
  0xf8, 0xdd, 0xff, 0x0b, 0x9a, 0x04, 0xfc, 0xab, 0xf7, 0xf6, 0x02, 0xfb,
  0x23, 0xfc, 0x0e, 0x12, 0x02, 0xe1, 0xe4, 0x0c, 0x13, 0xe0, 0xc4, 0x09,
  0xf6, 0xfb, 0x26, 0xf9, 0x16, 0xeb, 0xbb, 0x04, 0xe1, 0xe9, 0x2b, 0x0d,
  0x13, 0xf1, 0x06, 0xb6, 0xfa, 0x17, 0xe4, 0xf0, 0xca, 0x08, 0xf3, 0xed,
  0x75, 0x13, 0xcf, 0xf3, 0xef, 0x05, 0xf6, 0x01, 0x03, 0x01, 0x07, 0x16,
  0xfa, 0xf2, 0x81, 0x07, 0x22, 0x07, 0xc0, 0x05, 0x07, 0x10, 0xfb, 0xe2,
  0x1d, 0x27, 0x05, 0xf2, 0xc7, 0x0e, 0x03, 0xb5, 0x00, 0xf0, 0xf9, 0x33,
  0xa5, 0x07, 0x0e, 0xf8, 0x0a, 0x21, 0x04, 0x38, 0xd7, 0xea, 0x74, 0x05,
  0x05, 0xb4, 0xf9, 0xfc, 0x14, 0x36, 0x2e, 0x0a, 0xc6, 0xf0, 0xfe, 0x05,
  0x0d, 0x26, 0xf7, 0x02, 0xff, 0x0f, 0x1e, 0x08, 0xf1, 0x14, 0xf9, 0x07,
  0x09, 0xfa, 0xf9, 0x12, 0xe7, 0x0a, 0xea, 0x05, 0x02, 0xf0, 0x05, 0x2b,
  0xfe, 0x09, 0x09, 0x02, 0x03, 0x1b, 0xf9, 0xd5, 0xdf, 0xf7, 0x0c, 0x09,
  0x00, 0xc8, 0x24, 0xe9, 0x04, 0xf1, 0x07, 0x19, 0xf2, 0x04, 0x1e, 0xfc,
  0x15, 0x08, 0x3f, 0x81, 0xea, 0x0e, 0xf8, 0x31, 0xef, 0xeb, 0x26, 0x0d,
  0x0c, 0x30, 0xfb, 0x01, 0x35, 0xff, 0xd2, 0x10, 0x24, 0x3d, 0x13, 0xb5,
  0x0e, 0x21, 0x03, 0x0e, 0xff, 0x0d, 0x17, 0x01, 0xfb, 0x0c, 0x0c, 0x00,
  0x17, 0x02, 0x0c, 0xfa, 0xd0, 0x0d, 0xe1, 0xd3, 0x48, 0xea, 0xff, 0xeb,
  0x00, 0x05, 0x0c, 0xfe, 0x0c, 0xff, 0x02, 0xf5, 0xe8, 0xff, 0xbe, 0xe6,
  0x1c, 0xfc, 0x07, 0x0a, 0xbe, 0xc9, 0x24, 0x00, 0xf0, 0xec, 0x16, 0xde,
  0x08, 0xfc, 0xff, 0xdf, 0xfa, 0xff, 0x9e, 0xe7, 0xff, 0xce, 0xfc, 0xd7,
  0xe1, 0x24, 0x05, 0x06, 0x81, 0xfb, 0x06, 0xef, 0x02, 0xdc, 0x00, 0x0b,
  0xab, 0x15, 0xd9, 0xf6, 0x25, 0x02, 0xfe, 0x0b, 0xeb, 0x0b, 0x16, 0xf0,
  0xd0, 0xf4, 0xf9, 0x06, 0xf9, 0x14, 0x02, 0xdb, 0xef, 0x3b, 0x17, 0xd9,
  0xf6, 0x0a, 0x11, 0x05, 0xfd, 0x1d, 0xf6, 0xfc, 0x00, 0xea, 0xf1, 0xdc,
  0xf1, 0xff, 0x0e, 0xf5, 0xec, 0xfd, 0x0b, 0x04, 0x07, 0x06, 0xe6, 0xf1,
  0xf3, 0x16, 0x0d, 0xe2, 0xdc, 0xf5, 0xf4, 0xea, 0x81, 0xed, 0x06, 0xfa,
  0x36, 0x0a, 0x02, 0xfa, 0x11, 0x10, 0x0a, 0x11, 0xf7, 0x0a, 0xed, 0xee,
  0x04, 0x07, 0xd2, 0xf3, 0xf8, 0xfa, 0xc6, 0x00, 0x09, 0xf3, 0x11, 0xee,
  0x19, 0x15, 0x03, 0xfd, 0xf5, 0x0a, 0xf7, 0xfe, 0xe2, 0xf9, 0x01, 0x01,
  0x13, 0x00, 0x07, 0x04, 0x00, 0xf0, 0xff, 0xff, 0x16, 0x04, 0x0c, 0xf5,
  0x0d, 0xff, 0xb1, 0xff, 0xcb, 0xe5, 0xf5, 0xc9, 0x0b, 0xf9, 0xf6, 0x99,
  0xf9, 0xc1, 0xff, 0xf4, 0xcf, 0xe1, 0xff, 0x1d, 0x03, 0xcc, 0xd4, 0xe0,
  0xb4, 0xfd, 0x01, 0xe2, 0x21, 0xe9, 0xdf, 0x18, 0x0c, 0xfe, 0x81, 0xfb,
  0xfb, 0xbb, 0x04, 0xf6, 0x0c, 0xfe, 0xaf, 0xfa, 0xe5, 0x09, 0x16, 0xfc,
  0xe4, 0x1d, 0x0a, 0xf2, 0x08, 0x12, 0xae, 0xff, 0x05, 0xf5, 0xf5, 0xff,
  0x02, 0xdb, 0xfa, 0xf1, 0x0a, 0xd8, 0x09, 0x10, 0xe9, 0xf7, 0x08, 0x1e,
  0x06, 0x09, 0x05, 0xfa, 0xf7, 0xb1, 0x0c, 0xdb, 0xf1, 0x03, 0xe8, 0x0f,
  0x01, 0xd5, 0xda, 0xf9, 0x9b, 0x00, 0xe7, 0xe4, 0xdc, 0x10, 0xfd, 0xff,
  0x14, 0xb1, 0x0a, 0x81, 0x03, 0x07, 0xdf, 0x4f, 0xc0, 0xf6, 0x62, 0x2e,
  0x07, 0x3e, 0x18, 0xf8, 0x0f, 0x0e, 0x00, 0x3d, 0x4d, 0x0b, 0x0d, 0xba,
  0xe8, 0x14, 0xf4, 0xe3, 0x12, 0x05, 0x0e, 0xed, 0x14, 0xbd, 0x06, 0x08,
  0xe9, 0xf0, 0x17, 0x0c, 0xcb, 0xdd, 0xbb, 0xfb, 0x9e, 0xe0, 0xf7, 0xff,
  0xed, 0xfd, 0xe0, 0x02, 0xf2, 0xd8, 0x09, 0xea, 0x65, 0xef, 0xaf, 0xf2,
  0xdf, 0x0a, 0xe4, 0x04, 0xb8, 0x0a, 0xcf, 0xd4, 0xf9, 0xf9, 0xf6, 0xce,
  0xdd, 0xda, 0xfc, 0x20, 0x1f, 0xe5, 0xcd, 0xf4, 0x02, 0x1a, 0xd0, 0xd1,
  0xea, 0x28, 0xe9, 0xcc, 0x81, 0xe1, 0xec, 0x06, 0xf3, 0xdc, 0xd7, 0xcb,
  0xe3, 0xc9, 0xb7, 0xce, 0xfa, 0x00, 0x09, 0xd6, 0x11, 0xe3, 0x07, 0x07,
  0xbe, 0x05, 0xfa, 0xe9, 0x05, 0x14, 0xf5, 0xed, 0xfb, 0x11, 0x0e, 0xe4,
  0xec, 0x00, 0xf0, 0x01, 0x0d, 0x42, 0x04, 0x12, 0xf9, 0x0e, 0x11, 0x2a,
  0xfd, 0xa4, 0xe5, 0xd8, 0x0a, 0x00, 0xad, 0xeb, 0xc4, 0x45, 0x11, 0x09,
  0x12, 0x50, 0x08, 0x08, 0xdd, 0x0b, 0xf0, 0xe3, 0xdb, 0x09, 0xfe, 0x0f,
  0x02, 0x23, 0xe5, 0x03, 0x03, 0x02, 0xf1, 0x10, 0x02, 0x0e, 0x09, 0x11,
  0x13, 0xde, 0xdf, 0xc8, 0x20, 0x0b, 0xf9, 0x30, 0x04, 0x0a, 0x14, 0x00,
  0x1e, 0x2c, 0xe0, 0x97, 0x1d, 0x06, 0x0c, 0xf9, 0x81, 0x12, 0xf6, 0xf7,
  0xf7, 0x9d, 0xe9, 0x07, 0x0c, 0xfe, 0x04, 0x04, 0x2d, 0xf7, 0xfc, 0x00,
  0x00, 0x03, 0xc3, 0x06, 0xab, 0xbd, 0x06, 0xe1, 0x02, 0xea, 0xa1, 0x98,
  0x0c, 0xe1, 0x09, 0xf5, 0x03, 0xf6, 0xfe, 0x08, 0xfa, 0xed, 0xf1, 0xa3,
  0x13, 0xf9, 0xff, 0x0d, 0xf1, 0xf4, 0x05, 0x28, 0x10, 0x0d, 0xb7, 0xfb,
  0x00, 0xc9, 0xdf, 0x08, 0x1a, 0xfc, 0xa3, 0xfc, 0x05, 0xf7, 0x07, 0x04,
  0xe0, 0xfc, 0xea, 0x17, 0x06, 0xed, 0x81, 0xe0, 0xf7, 0x01, 0x02, 0xfc,
  0xf2, 0x02, 0xfc, 0x0c, 0xf1, 0x9a, 0xf6, 0xfc, 0xfc, 0x03, 0x04, 0x17,
  0xfd, 0x07, 0xfe, 0xfe, 0xfe, 0x0c, 0x05, 0xf7, 0xe4, 0xf4, 0xf1, 0x11,
  0xfe, 0xf7, 0x08, 0x13, 0xef, 0x01, 0xff, 0xfd, 0x02, 0x02, 0xd9, 0xff,
  0xe4, 0xfa, 0x81, 0x02, 0xf8, 0x08, 0x05, 0xf4, 0x03, 0xf4, 0xfb, 0x00,
  0xff, 0xaa, 0x00, 0x09, 0xd9, 0xfb, 0x05, 0xd3, 0x10, 0xe5, 0xff, 0x02,
  0x01, 0x06, 0x08, 0xf6, 0xfc, 0x06, 0x05, 0xfb, 0xfa, 0xbb, 0x0f, 0xfa,
  0xfc, 0xfb, 0xc4, 0xfa, 0xfc, 0xf8, 0x18, 0x0c, 0x97, 0xff, 0xf0, 0x08,
  0x05, 0x02, 0x0b, 0x07, 0xfb, 0xfb, 0xff, 0xe1, 0x15, 0xfe, 0x2a, 0x0e,
  0xf5, 0x0e, 0xfe, 0xed, 0x19, 0x32, 0x01, 0x02, 0x04, 0x0d, 0x05, 0x07,
  0xf5, 0xb3, 0x03, 0x18, 0x05, 0x51, 0x06, 0x0e, 0x05, 0x18, 0x94, 0x15,
  0x11, 0xe4, 0xc0, 0xe1, 0x15, 0xea, 0x02, 0x1d, 0x05, 0x03, 0xfa, 0x81,
  0x0f, 0xf7, 0x15, 0x01, 0x08, 0xfd, 0x07, 0xf8, 0x13, 0x03, 0x0a, 0x0b,
  0x2f, 0x15, 0x0a, 0x06, 0xfd, 0xe3, 0x04, 0x07, 0x0e, 0xb4, 0x28, 0x3d,
  0xe2, 0xf5, 0xe7, 0xd5, 0xf3, 0xe5, 0xfd, 0xff, 0xfb, 0x00, 0x07, 0x1b,
  0xfe, 0x66, 0xc8, 0x0a, 0xea, 0xed, 0x11, 0x19, 0x11, 0xd5, 0x0d, 0x00,
  0xec, 0xac, 0xf5, 0x05, 0x14, 0xfd, 0x04, 0x0c, 0x55, 0xae, 0xe6, 0xeb,
  0xc0, 0xbf, 0xe0, 0xe1, 0xf7, 0xd9, 0xdf, 0x03, 0xfd, 0xf9, 0xc7, 0xfe,
  0xe6, 0xf4, 0x06, 0x32, 0x07, 0x97, 0xeb, 0xfb, 0xfb, 0x00, 0xea, 0xf7,
  0x81, 0xdc, 0x02, 0x3d, 0x08, 0xf6, 0xe0, 0x07, 0x1a, 0xf2, 0xf7, 0xe9,
  0xd9, 0xf8, 0xf0, 0xe5, 0xf2, 0x0a, 0xfa, 0x00, 0xd0, 0xf7, 0xf7, 0x01,
  0xfe, 0xdf, 0xe6, 0x05, 0xe2, 0xf9, 0xf6, 0x06, 0xfa, 0xda, 0xf1, 0xf0,
  0xd9, 0x20, 0x09, 0xfa, 0x03, 0xec, 0x01, 0x0b, 0xff, 0xff, 0x15, 0x11,
  0xed, 0xec, 0xfd, 0x19, 0xd5, 0x17, 0xe3, 0xbe, 0xee, 0xe3, 0xcb, 0xf2,
  0xfa, 0xf7, 0xff, 0xea, 0xe9, 0xcb, 0x2e, 0xdf, 0xd7, 0xd5, 0xdd, 0x07,
  0x08, 0xd5, 0xfa, 0x98, 0xdf, 0xe9, 0x81, 0xfb, 0xee, 0x0d, 0xfe, 0xde,
  0xfd, 0xe8, 0xfb, 0xf1, 0x11, 0xd7, 0x10, 0xf1, 0xf6, 0x0e, 0x00, 0x17,
  0x03, 0x0a, 0xff, 0xee, 0xee, 0x18, 0x0c, 0x05, 0x19, 0x13, 0xf0, 0x0b,
  0xec, 0x00, 0xb0, 0xf3, 0xde, 0x0d, 0xfe, 0x02, 0xd1, 0x03, 0xd7, 0x01,
  0xd8, 0x03, 0x81, 0xa0, 0x0b, 0x0d, 0xe2, 0xfa, 0x0e, 0x05, 0xfd, 0xdc,
  0xcd, 0xf4, 0xfd, 0x02, 0x8c, 0x05, 0xf3, 0xba, 0x09, 0x9e, 0xd8, 0x0b,
  0xcf, 0x11, 0x01, 0xf2, 0xfe, 0xe5, 0xeb, 0xf0, 0x05, 0x2f, 0xfc, 0x14,
  0xf5, 0xff, 0xd6, 0x05, 0xf3, 0xfa, 0x21, 0x0c, 0xbf, 0xf8, 0x07, 0x03,
  0xfc, 0x0b, 0x44, 0xdf, 0x0a, 0xe6, 0x02, 0xe8, 0xb8, 0x05, 0x45, 0x16,
  0x04, 0xd8, 0x0e, 0x0c, 0x0d, 0xb2, 0x18, 0xea, 0xfc, 0xff, 0x0a, 0x13,
  0xff, 0xe3, 0xdf, 0xf3, 0xe8, 0xfe, 0xee, 0xdf, 0x06, 0xe6, 0x2e, 0xfa,
  0x03, 0x81, 0xff, 0xff, 0x43, 0xff, 0x04, 0xd6, 0xd2, 0x02, 0xd6, 0x15,
  0x88, 0xfd, 0xf3, 0xfb, 0x0e, 0x08, 0xea, 0xc5, 0xd7, 0xd7, 0xff, 0x10,
  0xf6, 0xd2, 0x10, 0x0c, 0xe3, 0x16, 0xda, 0xfb, 0x05, 0x0f, 0x05, 0xfe,
  0x07, 0xf3, 0xff, 0x03, 0xfb, 0x9a, 0xf9, 0x00, 0x08, 0xfb, 0xf7, 0xbb,
  0x01, 0x0b, 0xfd, 0x01, 0x10, 0x08, 0xee, 0x04, 0x87, 0x05, 0xd9, 0x06,
  0x05, 0xbe, 0xf6, 0x09, 0x09, 0xf7, 0xfb, 0xf2, 0xf3, 0x1f, 0xff, 0x02,
  0xf5, 0x00, 0xfe, 0xfa, 0xf2, 0x02, 0xfa, 0xd8, 0x03, 0x03, 0xb5, 0xd6,
  0xed, 0x01, 0x10, 0x81, 0xfd, 0x0a, 0xf7, 0x05, 0xfd, 0xdc, 0x07, 0xcf,
  0xe8, 0xe5, 0x00, 0xfb, 0xbd, 0xf4, 0xff, 0xfa, 0x04, 0xf5, 0xfb, 0xfe,
  0x10, 0x17, 0xec, 0xfb, 0x00, 0x03, 0x00, 0xfa, 0xab, 0x02, 0xfb, 0x01,
  0x00, 0xfd, 0xd2, 0xfb, 0xee, 0x00, 0x02, 0xfe, 0xf8, 0xe9, 0x06, 0x81,
  0xf7, 0xf5, 0x03, 0xf7, 0xda, 0x05, 0xf5, 0x00, 0x02, 0x0e, 0x06, 0x18,
  0x0d, 0xfd, 0x03, 0x0e, 0xde, 0x0a, 0x04, 0xf6, 0xea, 0xff, 0xf2, 0xfa,
  0xf3, 0xd5, 0xfb, 0x04, 0x03, 0xf0, 0xb6, 0xf5, 0xfc, 0x00, 0xf8, 0xfa,
  0xfb, 0x08, 0xe0, 0x0d, 0xfe, 0x0d, 0x14, 0xce, 0xf9, 0xfa, 0x06, 0x00,
  0xfb, 0x03, 0xed, 0x53, 0x45, 0xfc, 0xf9, 0xe4, 0xf5, 0x06, 0xfb, 0x7a,
  0xfa, 0xfa, 0xea, 0xfc, 0xdc, 0x13, 0x06, 0xc5, 0xed, 0xdb, 0xd4, 0x05,
  0xf6, 0x15, 0x1f, 0xf3, 0xdd, 0xfa, 0x04, 0xb3, 0x16, 0xf8, 0x81, 0x0d,
  0x21, 0xf2, 0x13, 0xbf, 0xf9, 0x06, 0x09, 0x39, 0xed, 0x01, 0x44, 0xda,
  0xdc, 0xbe, 0xff, 0xe9, 0x30, 0x12, 0x07, 0xfb, 0x2e, 0x3f, 0xf3, 0xb0,
  0xf3, 0x17, 0xef, 0xbb, 0x0b, 0x1b, 0xf7, 0x27, 0x0b, 0x1a, 0x1a, 0x06,
  0xc5, 0xd7, 0x06, 0xfe, 0x07, 0xfd, 0xef, 0x0e, 0xea, 0xfb, 0x00, 0x04,
  0xfa, 0xfa, 0x81, 0x03, 0xfc, 0xfc, 0x01, 0x06, 0xdd, 0x03, 0xee, 0xfa,
  0xf9, 0xf7, 0x00, 0x04, 0x06, 0xa7, 0xfc, 0xf0, 0x02, 0xfe, 0xea, 0xfa,
  0x03, 0x02, 0x06, 0xf0, 0xf4, 0xc1, 0xf5, 0xfc, 0xf0, 0xf5, 0xef, 0xfa,
  0x00, 0xfe, 0xf9, 0xf4, 0x08, 0x05, 0xfb, 0xe4, 0xfa, 0xfc, 0x05, 0xfd,
  0xb0, 0xfb, 0x02, 0xff, 0xdd, 0xff, 0xf6, 0xff, 0xf2, 0x02, 0xe8, 0xfd,
  0x1f, 0xd2, 0xf3, 0xed, 0x04, 0xf5, 0x05, 0xfc, 0x05, 0x27, 0xf6, 0xb7,
  0xf7, 0x0d, 0x0e, 0x04, 0x0b, 0x05, 0xfb, 0x0c, 0xf6, 0xfd, 0x10, 0xd7,
  0x09, 0x15, 0x10, 0xbb, 0xba, 0xfc, 0xdf, 0x0e, 0x0c, 0xd4, 0xa3, 0xfe,
  0xd9, 0x1a, 0xfc, 0xfc, 0xc8, 0x01, 0x13, 0xcc, 0x81, 0x12, 0x0a, 0xfc,
  0x15, 0xf6, 0xbb, 0xf6, 0x0d, 0x02, 0xfa, 0x0b, 0x0f, 0x06, 0xc9, 0x08,
  0x06, 0xef, 0xd2, 0xf6, 0x0b, 0x03, 0xf1, 0x11, 0x05, 0xdb, 0x15, 0xfc,
  0x10, 0x1c, 0x1b, 0x39, 0xfc, 0x1a, 0xfd, 0xca, 0xaa, 0x05, 0xfc, 0x01,
  0x1b, 0xf0, 0xf3, 0x18, 0x06, 0x15, 0x0e, 0xfa, 0xec, 0x04, 0xfd, 0xfa,
  0xea, 0x02, 0xcb, 0xfb, 0x02, 0xfd, 0x09, 0xef, 0xff, 0xd6, 0x17, 0x81,
  0x1e, 0xf5, 0x05, 0xfd, 0x0d, 0x06, 0xda, 0xca, 0xff, 0xfa, 0x09, 0xec,
  0xfa, 0x03, 0x02, 0x21, 0x15, 0x00, 0x03, 0xce, 0x08, 0xf9, 0x20, 0xfb,
  0x02, 0xdf, 0xec, 0xff, 0xf7, 0xda, 0xa9, 0xef, 0x1b, 0xce, 0xf9, 0x00,
  0xf9, 0x14, 0xe7, 0xff, 0x04, 0xf7, 0xfa, 0xc5, 0xf7, 0x04, 0x04, 0xe7,
  0xf4, 0x03, 0xf6, 0x2d, 0x0e, 0xbc, 0xf4, 0x0d, 0x0e, 0xfe, 0x00, 0x3e,
  0xe2, 0xfe, 0x02, 0xf3, 0xf2, 0x9c, 0x0a, 0xfc, 0xe5, 0xa4, 0xea, 0x03,
  0xd8, 0xf5, 0x22, 0x06, 0xb4, 0xfd, 0xf8, 0x18, 0x04, 0x05, 0x81, 0xe1,
  0xfd, 0xd1, 0xf7, 0xec, 0xfb, 0xff, 0x00, 0x03, 0xf8, 0x05, 0x00, 0x0f,
  0xee, 0x12, 0x02, 0x0b, 0xdd, 0xd5, 0xff, 0xfd, 0xbb, 0x10, 0x1b, 0xff,
  0xf4, 0x0f, 0x04, 0xe6, 0xf7, 0xe6, 0x09, 0xec, 0xf1, 0x13, 0xf6, 0x06,
  0x04, 0xed, 0xea, 0xfd, 0x01, 0xf1, 0xc7, 0xdd, 0xbd, 0x0e, 0xfe, 0x01,
  0xf6, 0x14, 0xf8, 0x03, 0x0e, 0xdb, 0xd9, 0xca, 0x02, 0xf4, 0x7f, 0xcf,
  0xcf, 0x04, 0xff, 0xe1, 0xd6, 0xb8, 0x08, 0xf7, 0xed, 0xec, 0xfe, 0xf2,
  0x0f, 0xee, 0x04, 0xcc, 0xd7, 0xb9, 0x13, 0xff, 0x0d, 0xd0, 0xeb, 0xb8,
  0xc2, 0x31, 0xeb, 0x06, 0xfd, 0x0a, 0x02, 0x5d, 0x0e, 0x0b, 0x35, 0xfd,
  0x93, 0xf9, 0xf4, 0x14, 0x2f, 0x06, 0x09, 0xf2, 0x13, 0xe6, 0x3a, 0x0b,
  0x3e, 0x00, 0x22, 0x22, 0xf6, 0xe2, 0x0a, 0x0e, 0xd6, 0x11, 0x1a, 0xd5,
  0x19, 0xd7, 0xcd, 0xfb, 0x08, 0x51, 0xfd, 0x03, 0x0a, 0xeb, 0xb5, 0xfd,
  0xff, 0xaf, 0xde, 0xf6, 0x0a, 0x00, 0xae, 0x1b, 0xea, 0xa1, 0x18, 0x07,
  0xe4, 0xdc, 0xde, 0x06, 0xb9, 0xfc, 0xe9, 0xf7, 0xf3, 0xa0, 0x11, 0xfc,
  0x42, 0x36, 0xe0, 0xd3, 0x0a, 0xc8, 0xcb, 0x81, 0x06, 0xfd, 0x2b, 0xfc,
  0x05, 0xc9, 0x31, 0x01, 0xca, 0xe7, 0xda, 0xef, 0x00, 0xfe, 0xe2, 0x2c,
  0xd8, 0x4a, 0x11, 0x88, 0x1c, 0xe1, 0x00, 0xed, 0xf1, 0xf2, 0xd9, 0xfe,
  0xed, 0xfd, 0xdb, 0xe1, 0xfa, 0xf2, 0xfc, 0x04, 0xf0, 0xfe, 0x0a, 0x0d,
  0xe1, 0x01, 0xe7, 0x06, 0x84, 0xde, 0xe9, 0xf1, 0x04, 0x01, 0xc2, 0x81,
  0x02, 0xfc, 0xfa, 0xf7, 0x19, 0xf7, 0xf9, 0x32, 0x01, 0xfd, 0xfb, 0x12,
  0x9d, 0xf1, 0x06, 0xfd, 0xe8, 0xdf, 0xf3, 0x16, 0x07, 0xfd, 0xfd, 0xf9,
  0x0a, 0x26, 0xfc, 0xe1, 0x1d, 0xef, 0xb4, 0xf8, 0xd0, 0xe4, 0x1b, 0x03,
  0xfa, 0x08, 0x09, 0x0a, 0x0d, 0xec, 0xed, 0x06, 0x01, 0x11, 0xf7, 0xf0,
  0x07, 0xea, 0xff, 0xf6, 0x09, 0xd5, 0x03, 0xec, 0xfb, 0xf8, 0xf7, 0xe9,
  0xfc, 0xfa, 0xe2, 0x06, 0xfc, 0xf4, 0xf6, 0xcd, 0xf5, 0xf5, 0xf6, 0xf5,
  0xdc, 0xe0, 0x0a, 0xc9, 0xf8, 0xf8, 0x07, 0x17, 0xe6, 0xf0, 0xf3, 0x03,
  0xfe, 0xfe, 0xf0, 0xcf, 0xf1, 0xf6, 0xfa, 0x0d, 0xfb, 0x01, 0xe6, 0xea,
  0xf6, 0xdf, 0xf2, 0xf5, 0xf3, 0x04, 0xed, 0xde, 0xd0, 0x01, 0xe0, 0xd8,
  0xd0, 0x03, 0xf8, 0xfe, 0xe8, 0x11, 0xc8, 0x14, 0xef, 0x81, 0xf8, 0x05,
  0xfd, 0xf2, 0xfb, 0xf7, 0xf9, 0xeb, 0x02, 0x0b, 0xcc, 0xe3, 0xf0, 0xfb,
  0x04, 0x07, 0x1c, 0x01, 0x06, 0x03, 0xf9, 0xdf, 0x00, 0x07, 0xec, 0xf2,
  0x0d, 0xfc, 0x06, 0xe3, 0xce, 0x25, 0x04, 0xf3, 0xff, 0xf7, 0x00, 0xf9,
  0x03, 0xfd, 0x00, 0x0a, 0xf9, 0xc5, 0xc1, 0xeb, 0x0a, 0x10, 0xcd, 0xef,
  0xe8, 0xec, 0xfc, 0xe6, 0x81, 0xe6, 0x09, 0x14, 0xff, 0xdf, 0xec, 0xbc,
  0x0f, 0xe2, 0xdf, 0xcf, 0x0b, 0x09, 0xff, 0xe7, 0x09, 0xe7, 0x17, 0xef,
  0xe5, 0x06, 0xf3, 0x03, 0x06, 0x06, 0x07, 0xee, 0xda, 0x19, 0x2e, 0xb5,
  0x0b, 0x05, 0xfd, 0x07, 0xfc, 0x2c, 0x06, 0x02, 0xf9, 0xfd, 0xcd, 0xc7,
  0xf7, 0xbf, 0xde, 0xd9, 0xfc, 0x04, 0xcf, 0x01, 0xf5, 0x0b, 0x15, 0xfd,
  0xdd, 0xee, 0x03, 0x04, 0xcc, 0xfa, 0xf1, 0x18, 0xf4, 0x0b, 0xfa, 0x08,
  0x31, 0x2f, 0xfa, 0xdb, 0x0a, 0x0c, 0x02, 0x81, 0xf8, 0x00, 0x10, 0x03,
  0x0f, 0xdb, 0x0f, 0x08, 0xd6, 0xfb, 0xd2, 0x0a, 0xf9, 0xfd, 0xff, 0x0b,
  0x12, 0x1e, 0xf4, 0xcc, 0x11, 0xf9, 0xfa, 0xf8, 0x06, 0xfd, 0xff, 0xfe,
  0xcd, 0x90, 0xff, 0x21, 0x0b, 0xfb, 0x02, 0x08, 0x15, 0xdb, 0x10, 0xe2,
  0x04, 0x15, 0xd7, 0xef, 0x7f, 0x07, 0xe0, 0xfa, 0x10, 0x02, 0xc5, 0x9c,
  0xf0, 0xf4, 0x00, 0xd1, 0x0c, 0xe9, 0xff, 0x07, 0xe5, 0xd3, 0xef, 0xa7,
  0x0c, 0xe4, 0xff, 0xdb, 0x28, 0xc1, 0xc2, 0x23, 0x0f, 0x15, 0x2c, 0xf8,
  0x06, 0x0c, 0xe2, 0x02, 0x25, 0x2c, 0xad, 0xf6, 0x0e, 0xf9, 0x02, 0x09,
  0xf5, 0xed, 0xe6, 0x1b, 0xfb, 0xf9, 0x38, 0xe9, 0x0b, 0x07, 0xf6, 0xeb,
  0xe3, 0x03, 0xd6, 0x07, 0x27, 0xa6, 0xfd, 0xd3, 0xe8, 0x09, 0xfd, 0x08,
  0x03, 0x0b, 0xf6, 0xee, 0xd8, 0xc7, 0x06, 0xca, 0xc4, 0xcd, 0xfc, 0x0f,
  0xbe, 0x03, 0xf2, 0xfa, 0x2c, 0x00, 0xf1, 0x09, 0xf4, 0x10, 0xe4, 0x00,
  0xf7, 0x03, 0x0d, 0xaf, 0x01, 0x09, 0x04, 0x24, 0xec, 0xe3, 0xea, 0xd9,
  0xdd, 0xb1, 0x00, 0x04, 0x0a, 0xfc, 0x00, 0xcb, 0x1f, 0xf6, 0xcc, 0xe3,
  0xd9, 0x05, 0xfd, 0xfc, 0x08, 0x29, 0xdc, 0x2f, 0xf8, 0x81, 0x15, 0x02,
  0x0a, 0xfc, 0xe1, 0x01, 0xdc, 0xf3, 0x1e, 0x05, 0x25, 0x03, 0x09, 0xfc,
  0x04, 0x03, 0x10, 0x00, 0x03, 0x08, 0x02, 0xf4, 0xa8, 0xfe, 0x10, 0xef,
  0xff, 0xff, 0x08, 0x0a, 0x08, 0xf4, 0x36, 0x1c, 0x0c, 0xf0, 0xdf, 0x0e,
  0x0c, 0x0e, 0x03, 0xf1, 0xff, 0x7f, 0xf3, 0xf6, 0x07, 0x0e, 0x45, 0x15,
  0xf8, 0x0c, 0x07, 0x00, 0xff, 0x03, 0x00, 0xfc, 0x04, 0x0f, 0x0b, 0x10,
  0xb4, 0x00, 0xe9, 0x04, 0xf6, 0x02, 0x03, 0x0b, 0xea, 0x11, 0x02, 0xff,
  0xff, 0x02, 0xeb, 0x0e, 0xfd, 0x25, 0xfb, 0x01, 0xeb, 0xfb, 0xed, 0x5d,
  0x1f, 0x01, 0x10, 0x0e, 0x01, 0x13, 0x01, 0xf1, 0x01, 0x00, 0xe4, 0xec,
  0xf3, 0x17, 0xf6, 0x03, 0xdb, 0xf6, 0xe0, 0x2b, 0x8a, 0x3a, 0xf2, 0x0d,
  0xff, 0x0b, 0x1e, 0xf3, 0x0b, 0xfd, 0x1f, 0xf7, 0x7f, 0x35, 0x10, 0xff,
  0xf2, 0xec, 0x22, 0x15, 0xf7, 0x0f, 0x0d, 0x13, 0xe8, 0x03, 0xfe, 0xe4,
  0x28, 0x26, 0xd7, 0x8d, 0xe5, 0x2e, 0xff, 0x06, 0x07, 0xe5, 0x06, 0xcc,
  0xf2, 0xf0, 0x0f, 0x31, 0xca, 0xfb, 0x1a, 0x08, 0x1c, 0xef, 0x35, 0xf8,
  0x1d, 0x01, 0x18, 0x04, 0x06, 0x15, 0xe7, 0x00, 0x1f, 0xf0, 0x00, 0x07,
  0xfd, 0x08, 0x05, 0x15, 0x8c, 0x03, 0x0f, 0xb1, 0x03, 0x16, 0xca, 0x41,
  0xf9, 0xe9, 0x01, 0xdf, 0xec, 0xec, 0xfe, 0x15, 0xe7, 0xf7, 0xe2, 0x85,
  0xc8, 0xfc, 0xf1, 0x25, 0x01, 0xca, 0xf6, 0x34, 0xf9, 0xf8, 0xd4, 0x08,
  0x05, 0xc6, 0xdc, 0xe0, 0x0d, 0x01, 0x13, 0x12, 0xad, 0xf5, 0xe5, 0x08,
  0xf9, 0x1a, 0xde, 0x14, 0xc7, 0xd5, 0x81, 0xf4, 0xfd, 0xeb, 0xf5, 0x25,
  0x07, 0xf4, 0xdc, 0x2a, 0x32, 0xc7, 0x09, 0xfe, 0x08, 0x17, 0xfc, 0x7f,
  0xf9, 0x05, 0xeb, 0xed, 0xe0, 0xcf, 0xf9, 0xc3, 0xff, 0xdc, 0xed, 0x17,
  0x00, 0xe9, 0x4d, 0x10, 0xf4, 0xfb, 0xcd, 0x07, 0x06, 0xff, 0xe7, 0xfe,
  0x0a, 0xf9, 0x17, 0x01, 0x04, 0x0a, 0x51, 0x2d, 0xd6, 0xf0, 0x1d, 0x19,
  0x01, 0xf4, 0xf2, 0x07, 0x3b, 0x05, 0x07, 0xe5, 0x1b, 0x0f, 0xe9, 0xf4,
  0xc7, 0x02, 0xf7, 0xcf, 0x0c, 0x39, 0x14, 0x0c, 0x10, 0xa3, 0x18, 0xfc,
  0xee, 0xd9, 0x01, 0xec, 0xfd, 0xfd, 0xf5, 0xf4, 0x81, 0x13, 0x06, 0xfc,
  0xfc, 0xf9, 0xf7, 0x00, 0x00, 0xff, 0xec, 0x01, 0xff, 0x00, 0xf6, 0xff,
  0xff, 0x0e, 0xf7, 0xf0, 0xf3, 0xfc, 0x13, 0xeb, 0x02, 0xe7, 0x02, 0xfe,
  0xec, 0x97, 0xfe, 0xef, 0xf5, 0x10, 0x1b, 0xff, 0xf4, 0xf9, 0xf7, 0xf5,
  0x00, 0x11, 0xd1, 0xeb, 0xfc, 0xfb, 0xf5, 0x0b, 0xfe, 0x0a, 0xf3, 0x9f,
  0xed, 0xfd, 0x04, 0xfc, 0x00, 0xf5, 0xfd, 0x0c, 0xf3, 0x02, 0x02, 0x07,
  0xf5, 0xef, 0xf9, 0xf5, 0x00, 0x1b, 0xff, 0x01, 0xe8, 0x13, 0xe8, 0xee,
  0xfa, 0xd8, 0xef, 0x08, 0x0b, 0x1e, 0x06, 0x0d, 0xf9, 0xf9, 0xdb, 0xf3,
  0xfc, 0xe6, 0xcf, 0xd0, 0xf6, 0x00, 0xd0, 0x2b, 0xd1, 0xef, 0x03, 0x00,
  0xf9, 0x04, 0xf4, 0x0d, 0x09, 0x03, 0x10, 0x07, 0xf6, 0xa6, 0x00, 0x10,
  0xe8, 0x17, 0xfc, 0xdf, 0xfa, 0xcc, 0xe4, 0xc3, 0xfe, 0x02, 0x38, 0x05,
  0x02, 0xca, 0x3e, 0xfa, 0xc2, 0xd3, 0xc9, 0x31, 0x03, 0xfa, 0x0a, 0x18,
  0xac, 0x13, 0xf0, 0x81, 0x0b, 0xf9, 0x05, 0x08, 0xcf, 0xf3, 0xe6, 0x04,
  0x1e, 0xfb, 0xfb, 0x04, 0x06, 0x0b, 0x01, 0xff, 0x2c, 0xf2, 0x00, 0x06,
  0x05, 0xfe, 0xe0, 0x05, 0x90, 0x03, 0x07, 0xed, 0x05, 0x12, 0xbd, 0x0f,
  0x17, 0xf3, 0x01, 0xfb, 0x28, 0x0e, 0x03, 0x0e, 0xf5, 0xf8, 0xea, 0xcd,
  0xfd, 0xf3, 0xfe, 0xfb, 0x22, 0xfb, 0xfc, 0x15, 0x24, 0xfd, 0x1d, 0x02,
  0x01, 0xf7, 0xee, 0xfb, 0x04, 0x0c, 0x3b, 0x17, 0x02, 0xfd, 0x06, 0x01,
  0xf2, 0xf6, 0xed, 0x1d, 0xf5, 0xe3, 0x81, 0xfa, 0x01, 0x01, 0xf6, 0xf3,
  0xfe, 0x00, 0xd7, 0x05, 0xdf, 0x21, 0xf4, 0xed, 0xf4, 0x0c, 0x06, 0x2b,
  0x02, 0xfd, 0x11, 0xf9, 0xc2, 0xeb, 0x02, 0xc0, 0xec, 0xf3, 0x1f, 0x0c,
  0xd9, 0xfa, 0xa4, 0x17, 0x1e, 0xf6, 0xed, 0x29, 0x05, 0x06, 0xdf, 0xf9,
  0x0d, 0xe7, 0x7f, 0x08, 0xdc, 0x14, 0xf7, 0x16, 0xdc, 0x01, 0xdb, 0x2f,
  0x19, 0x7b, 0xd4, 0x07, 0x11, 0xf7, 0xed, 0xde, 0x89, 0xfc, 0x04, 0x22,
  0xee, 0x4f, 0xfd, 0xfe, 0xd4, 0xf5, 0x0e, 0x36, 0xe0, 0x1e, 0xfa, 0x01,
  0x17, 0x02, 0xee, 0x04, 0x02, 0x01, 0xef, 0xec, 0xc2, 0xf6, 0x05, 0x01,
  0xfc, 0xfb, 0xf4, 0xfa, 0xfa, 0x04, 0xfa, 0x02, 0x05, 0x00, 0x14, 0xf7,
  0xfb, 0x07, 0xfb, 0x11, 0xe5, 0x0a, 0x06, 0x0a, 0xfc, 0xfb, 0x05, 0xfd,
  0xf5, 0xbf, 0xfb, 0xfd, 0xff, 0xfa, 0xff, 0xfc, 0xf6, 0xff, 0xa6, 0x0e,
  0xff, 0xed, 0xee, 0xed, 0xf2, 0xf3, 0x08, 0xe6, 0xff, 0xf5, 0x0f, 0x81,
  0x09, 0x01, 0xfd, 0xeb, 0xf3, 0x03, 0x03, 0xe8, 0xe5, 0x0f, 0xe8, 0xee,
  0x04, 0xfa, 0xf1, 0x03, 0x07, 0xf1, 0xf9, 0xfd, 0xe7, 0x33, 0xe7, 0x02,
  0xfc, 0xfa, 0x09, 0x06, 0x0a, 0xe1, 0x0b, 0x11, 0xfd, 0xf3, 0xf8, 0xde,
  0xfe, 0xe7, 0x05, 0xf7, 0x03, 0x02, 0x03, 0x0b, 0x81, 0x03, 0xee, 0xfc,
  0xf7, 0x41, 0xef, 0xfd, 0x0c, 0x05, 0x04, 0x02, 0x50, 0xf5, 0xf9, 0x13,
  0xfd, 0x15, 0xee, 0xf4, 0x11, 0x10, 0x00, 0x01, 0xfb, 0xfa, 0x09, 0x07,
  0xea, 0xf2, 0x1c, 0xe6, 0xdd, 0x1d, 0xee, 0x37, 0x06, 0x06, 0x0f, 0x18,
  0x20, 0x08, 0x05, 0xba, 0x05, 0x17, 0x21, 0xfe, 0x1a, 0x1c, 0x01, 0xe6,
  0x0d, 0x17, 0xdd, 0x00, 0xfc, 0xfe, 0x06, 0x06, 0x19, 0x03, 0x06, 0xf8,
  0xed, 0xdf, 0xeb, 0xf8, 0xdc, 0xda, 0xf4, 0xf7, 0x00, 0xea, 0x0f, 0xf9,
  0x03, 0x07, 0xf7, 0xea, 0x12, 0x00, 0xfe, 0xf4, 0x09, 0x00, 0x14, 0xea,
  0x1e, 0xfc, 0x08, 0x0d, 0x14, 0xf7, 0xd5, 0x01, 0x14, 0x0a, 0x99, 0xfb,
  0xfc, 0xe6, 0x03, 0x00, 0xdd, 0x0d, 0x08, 0xe4, 0x0d, 0xe0, 0x19, 0xfb,
  0x03, 0xfc, 0x19, 0xf7, 0x38, 0xf9, 0x81, 0xfa, 0x01, 0x0b, 0xf7, 0xd0,
  0x01, 0x02, 0xff, 0x08, 0x04, 0xe4, 0x01, 0x00, 0xff, 0x01, 0x03, 0x02,
  0x03, 0x05, 0x00, 0x09, 0xf9, 0xeb, 0x01, 0xf1, 0xe6, 0xff, 0xfa, 0x08,
  0x03, 0x03, 0xd1, 0x08, 0xef, 0x04, 0xfe, 0x0b, 0xfe, 0x00, 0x0a, 0xff,
  0x10, 0xe9, 0x7f, 0x03, 0x00, 0x08, 0x06, 0x1c, 0xf8, 0x03, 0x13, 0x0a,
  0xfd, 0x19, 0x02, 0x01, 0xfd, 0xfd, 0x00, 0xfb, 0x08, 0xff, 0x08, 0x00,
  0x05, 0x0f, 0x02, 0xf2, 0x00, 0x04, 0x06, 0x04, 0x01, 0xef, 0xfb, 0x02,
  0xfa, 0xf0, 0x1e, 0xfb, 0x01, 0xe0, 0x09, 0x00, 0xdd, 0xe6, 0xe3, 0xf0,
  0x0a, 0x03, 0xd4, 0xfe, 0x08, 0xf8, 0xfe, 0xdc, 0xe5, 0x02, 0x3b, 0xd7,
  0xd9, 0xf7, 0x0a, 0xe1, 0xfe, 0x93, 0x22, 0xfd, 0xfc, 0xfa, 0x0f, 0x0a,
  0xfa, 0xe2, 0xfd, 0xfa, 0xf7, 0x41, 0x81, 0xef, 0x06, 0xe5, 0xcf, 0xf2,
  0xf9, 0xd6, 0xd8, 0x0a, 0x3b, 0xf5, 0x09, 0x28, 0xfe, 0xff, 0xe2, 0xbc,
  0xdc, 0xfc, 0xc7, 0x07, 0x1e, 0x02, 0xfa, 0xe1, 0x16, 0xf9, 0x1a, 0x08,
  0xfa, 0xfd, 0xfd, 0x04, 0xf9, 0x47, 0x00, 0xfd, 0xfe, 0xee, 0x1c, 0x6a,
  0x16, 0xf8, 0x03, 0xf9, 0x03, 0xc6, 0x03, 0x03, 0x18, 0xf3, 0x0c, 0x8f,
  0x08, 0xfb, 0x0d, 0x01, 0xec, 0xfa, 0x07, 0xfa, 0xf8, 0xef, 0x3c, 0x13,
  0x00, 0xc5, 0x0f, 0x10, 0x1c, 0x04, 0x09, 0x00, 0x20, 0x43, 0x0a, 0x05,
  0xe8, 0xcc, 0x1b, 0x0c, 0x35, 0xdc, 0xf8, 0xf8, 0x03, 0xfc, 0xcf, 0x17,
  0x2d, 0x15, 0x3a, 0x81, 0xdf, 0x29, 0xf6, 0xe5, 0xfd, 0xf2, 0x3b, 0x0a,
  0xf4, 0xfa, 0x25, 0xe5, 0x12, 0xff, 0x02, 0x12, 0x0b, 0x0f, 0x0d, 0x07,
  0x05, 0xf2, 0xdf, 0x16, 0x09, 0x03, 0x01, 0x07, 0x28, 0x01, 0x04, 0xe5,
  0xff, 0xf2, 0xdb, 0x09, 0x18, 0xf9, 0x1b, 0xed, 0x04, 0x00, 0x0e, 0x84,
  0x2c, 0xc7, 0xff, 0xf0, 0x09, 0xfe, 0x0a, 0x0d, 0x03, 0xe6, 0xdc, 0xd8,
  0xfb, 0x05, 0x0d, 0x0e, 0x20, 0xd4, 0xf7, 0x12, 0x00, 0x1f, 0xc2, 0x14,
  0x03, 0xdb, 0x05, 0x01, 0xfd, 0x2f, 0x81, 0xfb, 0x0b, 0x13, 0x13, 0xfd,
  0xe0, 0x07, 0xec, 0xef, 0x03, 0x06, 0xb7, 0x0e, 0xff, 0x03, 0xeb, 0xd6,
  0xf2, 0x02, 0xfd, 0xf2, 0x09, 0x9b, 0x05, 0xed, 0xec, 0x06, 0x03, 0x1e,
  0x01, 0x02, 0xfb, 0xeb, 0xe2, 0xdf, 0xfe, 0x3a, 0x06, 0x0d, 0x04, 0x07,
  0xed, 0x03, 0xc7, 0xfd, 0x08, 0xfe, 0x04, 0x2f, 0xe7, 0x07, 0xd4, 0x01,
  0xee, 0xf9, 0xd9, 0x98, 0xfe, 0x0b, 0xc1, 0x0f, 0xf8, 0x01, 0xf3, 0xe7,
  0xe6, 0x81, 0x03, 0xfc, 0x20, 0x07, 0xfe, 0xd5, 0xfd, 0xd7, 0xe9, 0x07,
  0xf1, 0x1f, 0xfd, 0x03, 0xf4, 0x1e, 0xc7, 0x12, 0xfd, 0xeb, 0x13, 0x05,
  0xfc, 0xf9, 0xf3, 0x09, 0xf3, 0xfe, 0x16, 0x08, 0xfa, 0x01, 0x03, 0xfa,
  0x01, 0xfd, 0xbc, 0xfc, 0x00, 0xfd, 0x00, 0xf5, 0xca, 0xfa, 0x1d, 0x0a,
  0xfb, 0x08, 0x07, 0xfc, 0xf9, 0x81, 0x13, 0xf5, 0x04, 0xfb, 0xea, 0xfc,
  0x01, 0x0a, 0xf6, 0xfe, 0xfe, 0x1a, 0xbe, 0xfe, 0xff, 0xf4, 0x30, 0x1b,
  0x02, 0x07, 0xfd, 0xfa, 0x10, 0xfd, 0xff, 0xdf, 0xde, 0xf7, 0x02, 0x18,
  0x92, 0xf0, 0xf9, 0xfc, 0xf7, 0xfd, 0xe0, 0x00, 0xdb, 0x03, 0xe8, 0x06,
  0xf4, 0xd3, 0xf3, 0x00, 0x04, 0x06, 0xfc, 0xfe, 0xe2, 0x0d, 0xfd, 0x19,
  0x05, 0xfa, 0xf3, 0x06, 0x05, 0x0c, 0xfb, 0xfd, 0xf5, 0xf6, 0xdc, 0xce,
  0xff, 0x30, 0xf5, 0xdd, 0xc8, 0x05, 0xd9, 0x15, 0x81, 0xfa, 0xcf, 0x04,
  0xfe, 0xfc, 0x0f, 0x00, 0xf3, 0xff, 0xff, 0xe9, 0x00, 0xde, 0xfb, 0x06,
  0xe4, 0x01, 0xfd, 0x05, 0x06, 0xfd, 0x08, 0xd5, 0xf8, 0x02, 0xda, 0xfd,
  0x16, 0xf4, 0x1b, 0xac, 0xe4, 0x01, 0x03, 0x04, 0x01, 0xe7, 0x05, 0xf8,
  0x06, 0x0e, 0x16, 0x01, 0x03, 0x0a, 0x0a, 0xe4, 0xed, 0x00, 0x0b, 0xdf,
  0xea, 0x0b, 0xf0, 0xc7, 0xd1, 0xec, 0xe8, 0xf4, 0xad, 0x01, 0xf8, 0x03,
  0xfe, 0xeb, 0x0e, 0x0b, 0x3a, 0xe1, 0xdb, 0xfa, 0xf0, 0xe2, 0x03, 0x33,
  0xe6, 0xf8, 0x09, 0x07, 0xe4, 0xee, 0x0a, 0xe4, 0x07, 0xfe, 0x1d, 0x3b,
  0xe8, 0xde, 0xef, 0xc6, 0x8a, 0x11, 0xfb, 0xca, 0xa5, 0xf9, 0x34, 0xf4,
  0xfc, 0x06, 0x0b, 0xdd, 0x03, 0x81, 0x05, 0xe0, 0x8c, 0x00, 0xea, 0xfd,
  0x02, 0xf2, 0xd2, 0xbe, 0xc1, 0x10, 0xc6, 0x1c, 0xe9, 0xf5, 0xfd, 0x07,
  0x06, 0x04, 0x06, 0xf0, 0xe4, 0x16, 0x01, 0xf0, 0xe6, 0xdc, 0xfe, 0xe6,
  0xeb, 0x00, 0x01, 0x0a, 0x00, 0x82, 0x03, 0x09, 0xd4, 0x17, 0xdc, 0x0a,
  0x0b, 0xde, 0xa5, 0x16, 0xe1, 0x00, 0x08, 0xcd, 0x0a, 0x07, 0xfb, 0xf1,
  0xff, 0xd2, 0x7f, 0x97, 0xe3, 0x09, 0xa0, 0x01, 0x07, 0x00, 0x31, 0x05,
  0xfe, 0xfc, 0xfe, 0x0c, 0xcd, 0xdf, 0x0b, 0x01, 0x0b, 0xbc, 0x08, 0xc0,
  0x00, 0x14, 0xff, 0xd9, 0xfa, 0xe3, 0xfe, 0xd8, 0xfc, 0x96, 0xcc, 0xfd,
  0x09, 0x06, 0x12, 0x00, 0x06, 0xfa, 0xfc, 0x12, 0x2b, 0x04, 0xfa, 0xfa,
  0xf6, 0xfa, 0x8d, 0x01, 0xf7, 0x0a, 0x07, 0xf6, 0xcd, 0xfe, 0x08, 0x02,
  0x09, 0x04, 0xf1, 0xdc, 0x0c, 0x94, 0x08, 0xf7, 0x06, 0x07, 0xc8, 0xf9,
  0x03, 0x90, 0x02, 0xf9, 0xe8, 0xdf, 0x07, 0x01, 0xfe, 0xf4, 0xdd, 0x02,
  0x00, 0xcf, 0xab, 0xf5, 0xe6, 0x02, 0xe7, 0xcf, 0xf7, 0xfe, 0x02, 0xa9,
  0x81, 0x00, 0xfa, 0x0d, 0x01, 0xfa, 0xf1, 0x0a, 0x02, 0x07, 0xd5, 0x00,
  0x0f, 0xd6, 0x01, 0xf4, 0xff, 0x27, 0x0a, 0xf9, 0xf3, 0xe2, 0xf5, 0x06,
  0x3c, 0xfe, 0x10, 0x1d, 0x06, 0x26, 0x0b, 0x01, 0xdf, 0xe7, 0x09, 0xbc,
  0xf6, 0x07, 0xfb, 0x1e, 0xc3, 0x06, 0xc7, 0xe3, 0xba, 0x0d, 0xba, 0x0a,
  0xd8, 0x07, 0xf2, 0xfb, 0xc9, 0x05, 0xef, 0xeb, 0x44, 0xe6, 0x1c, 0x07,
  0x0d, 0x08, 0xd5, 0xfe, 0xf9, 0xdd, 0x06, 0x11, 0x02, 0xfd, 0xd2, 0x00,
  0x15, 0xf6, 0xf4, 0x81, 0xaa, 0x3e, 0xc5, 0x0b, 0xfe, 0xe0, 0x16, 0xe7,
  0x0a, 0x1f, 0xfc, 0xf8, 0x00, 0x0a, 0x04, 0xf8, 0x16, 0xfc, 0x08, 0xff,
  0x11, 0xe1, 0xb1, 0xf3, 0xfe, 0xf7, 0xfd, 0x03, 0x22, 0xfd, 0x04, 0xfe,
  0xff, 0xfe, 0xe2, 0x00, 0xc1, 0xfe, 0x07, 0x01, 0x02, 0xfb, 0xbe, 0xe7,
  0x01, 0x0b, 0x02, 0x07, 0x11, 0x04, 0xff, 0xfa, 0xfd, 0xff, 0xf8, 0x98,
  0x0b, 0xf2, 0xff, 0x1b, 0x05, 0xf4, 0x00, 0xd3, 0x09, 0xfe, 0x81, 0x00,
  0x03, 0x2d, 0xff, 0x04, 0xe5, 0x04, 0xfb, 0x01, 0x08, 0x03, 0x02, 0x01,
  0xf9, 0xe5, 0x0d, 0xf5, 0x0b, 0xfd, 0x90, 0x07, 0xfa, 0x02, 0xfa, 0xef,
  0xff, 0x06, 0xec, 0xfa, 0x08, 0x08, 0x06, 0xff, 0x00, 0x04, 0x02, 0x3a,
  0xf3, 0xfd, 0x0c, 0x08, 0xd9, 0xcc, 0x00, 0x12, 0xda, 0xfb, 0xf6, 0x09,
  0xb2, 0x0b, 0x12, 0x08, 0xfc, 0xfd, 0xfc, 0x10, 0xfa, 0xfa, 0xe4, 0xed,
  0x02, 0x04, 0x7f, 0x07, 0xf2, 0x0b, 0x27, 0x1f, 0x06, 0xfb, 0xec, 0x07,
  0x03, 0xda, 0xe1, 0x05, 0x15, 0xf2, 0x07, 0xc1, 0xcf, 0x26, 0xfb, 0x00,
  0x06, 0x16, 0xfa, 0xe4, 0xe1, 0x08, 0xfb, 0x15, 0xf3, 0xcf, 0x03, 0xf5,
  0xfc, 0xe3, 0x03, 0xef, 0x01, 0x06, 0xd9, 0xcc, 0x28, 0xf7, 0x05, 0xf5,
  0xec, 0xfc, 0xfc, 0xfb, 0x04, 0xf1, 0xfd, 0xfd, 0xf1, 0xff, 0xd6, 0xe6,
  0x0b, 0x03, 0xfe, 0xec, 0xce, 0xec, 0x1a, 0xf5, 0xfc, 0xea, 0xf2, 0xe2,
  0xfb, 0x0a, 0xfd, 0xed, 0xfb, 0xf8, 0xe5, 0xee, 0xf4, 0xe6, 0xdd, 0xe9,
  0xe6, 0xfb, 0xff, 0xfc, 0x81, 0x03, 0x03, 0x12, 0xfe, 0xf2, 0x0b, 0xf5,
  0xea, 0xfb, 0xcd, 0x00, 0xfb, 0x02, 0xf3, 0x07, 0x07, 0xf5, 0x0d, 0xf2,
  0x9e, 0xfd, 0xf1, 0x02, 0x03, 0x0c, 0x03, 0xe6, 0xf0, 0x00, 0x16, 0x81,
  0xf5, 0xe8, 0xf2, 0x03, 0x04, 0x1d, 0x0a, 0x03, 0xf9, 0xf4, 0xf6, 0xf6,
  0xff, 0xd9, 0x03, 0xf8, 0xff, 0x01, 0xe6, 0x11, 0x19, 0xde, 0x04, 0x01,
  0xf0, 0x01, 0xe4, 0x0a, 0xf4, 0x02, 0x11, 0x05, 0x1b, 0xd0, 0x04, 0x0d,
  0x08, 0x18, 0xf9, 0xec, 0xe5, 0xee, 0xe5, 0xc3, 0x01, 0x01, 0x21, 0x0d,
  0x0f, 0xe1, 0x0f, 0x02, 0xfb, 0x0b, 0xe7, 0x0e, 0x03, 0xfb, 0xf8, 0x16,
  0xcc, 0x27, 0xfc, 0x15, 0x07, 0xfb, 0x03, 0xff, 0xea, 0x05, 0xe3, 0xfb,
  0x12, 0x11, 0xf6, 0xff, 0xf7, 0xfd, 0x04, 0x02, 0xf7, 0x03, 0xff, 0xf8,
  0x02, 0xfb, 0x01, 0x01, 0xf2, 0x00, 0xff, 0xe2, 0xfd, 0xf0, 0x2a, 0xe3,
  0x07, 0xe9, 0x05, 0x05, 0xf0, 0x05, 0x03, 0xee, 0x02, 0x06, 0xee, 0x7f,
  0x1b, 0xfe, 0x04, 0x09, 0xff, 0x05, 0xfd, 0xfb, 0xdf, 0x04, 0x27, 0x02,
  0xf2, 0xda, 0x0b, 0x05, 0x05, 0x0d, 0xda, 0xeb, 0x07, 0x05, 0x04, 0xf7,
  0xf9, 0x0e, 0xf8, 0xfd, 0xfc, 0x16, 0x27, 0x05, 0x03, 0xfd, 0xee, 0x14,
  0xff, 0x02, 0x0e, 0xb9, 0xca, 0x04, 0xd8, 0x1f, 0x20, 0xed, 0xf0, 0xba,
  0xe5, 0xec, 0x1e, 0x00, 0x06, 0x42, 0xef, 0x4b, 0x04, 0x1f, 0x29, 0xf2,
  0x31, 0x81, 0x3d, 0x34, 0x0c, 0xe6, 0x0d, 0x37, 0x10, 0xe8, 0x13, 0xe9,
  0x23, 0x2a, 0xc6, 0xf1, 0xe3, 0xef, 0x01, 0xa8, 0x28, 0x10, 0xa3, 0x20,
  0x13, 0x69, 0xd9, 0x19, 0x05, 0xe8, 0xd6, 0x0e, 0xb4, 0x1e, 0x1c, 0xe8,
  0x01, 0xd3, 0x12, 0x1a, 0xb1, 0xb5, 0x1b, 0xc0, 0xc9, 0xf1, 0xda, 0xe2,
  0x1a, 0x1c, 0xf1, 0xec, 0x14, 0xf8, 0xf3, 0xfa, 0x63, 0xf9, 0xf8, 0xe2,
  0xe0, 0x04, 0xc7, 0xf0, 0x05, 0x0b, 0x10, 0xf3, 0xae, 0x05, 0xdf, 0xe4,
  0x05, 0xe0, 0x08, 0x2a, 0xfb, 0x81, 0x18, 0xe7, 0x01, 0xfa, 0xc5, 0x0a,
  0x06, 0xe0, 0xe7, 0x04, 0xd0, 0x4c, 0x9b, 0xed, 0x02, 0xae, 0x37, 0xee,
  0xf0, 0x2c, 0x0f, 0x16, 0xe8, 0x09, 0x01, 0x00, 0xe0, 0x0c, 0x01, 0x02,
  0x9b, 0x0a, 0xce, 0x11, 0x05, 0x07, 0xde, 0xf0, 0xdf, 0x07, 0xca, 0xfa,
  0x14, 0xe1, 0xf6, 0xfd, 0xfb, 0x0c, 0x01, 0x03, 0xcc, 0xfc, 0xcd, 0xab,
  0x13, 0x09, 0xfc, 0xfc, 0x03, 0x3a, 0xf8, 0x01, 0xdc, 0xde, 0xc2, 0x45,
  0xde, 0x3c, 0x03, 0xe5, 0x0d, 0xf6, 0x06, 0x81, 0xec, 0xf4, 0xe8, 0xea,
  0xee, 0x0a, 0x00, 0xd7, 0xfb, 0xf9, 0xfb, 0x03, 0xa1, 0x1c, 0xe7, 0x06,
  0x28, 0x45, 0xb8, 0xdb, 0x1f, 0x37, 0x17, 0xde, 0xd8, 0x00, 0x1d, 0x03,
  0x08, 0x0a, 0xb1, 0x09, 0xaa, 0x11, 0xbe, 0xeb, 0x02, 0x03, 0x02, 0x33,
  0xf8, 0x45, 0xe3, 0xfe, 0x16, 0x07, 0x03, 0xf8, 0xf8, 0xef, 0x0d, 0x11,
  0xb9, 0x3e, 0xb3, 0xd2, 0xd3, 0xd2, 0xe3, 0xf1, 0x81, 0x07, 0xe8, 0x1a,
  0x22, 0x1d, 0x44, 0x25, 0xef, 0x11, 0x15, 0x1d, 0xf4, 0x2a, 0xfc, 0x18,
  0xd0, 0xf8, 0x14, 0x2d, 0xd4, 0xd4, 0x1f, 0xf4, 0x03, 0x17, 0x11, 0xf7,
  0xc7, 0x0b, 0xe2, 0xa8, 0x88, 0x1c, 0x27, 0x15, 0xa1, 0xd6, 0x6e, 0x16,
  0xf9, 0x0b, 0x0e, 0xcf, 0x0b, 0x06, 0x22, 0x40, 0xbd, 0x21, 0xe4, 0xf3,
  0x09, 0x1d, 0x22, 0xa6, 0xbb, 0x1d, 0x36, 0x18, 0xd7, 0xd5, 0x0a, 0x16,
  0x0e, 0xd7, 0xf3, 0x0d, 0x10, 0x14, 0x03, 0xf1, 0xf8, 0x01, 0x05, 0x06,
  0xf9, 0xff, 0x00, 0xf6, 0xdb, 0xe9, 0xf2, 0x28, 0x1a, 0x06, 0xd7, 0x03,
  0xed, 0xf6, 0x81, 0x39, 0xf1, 0x02, 0x13, 0x07, 0x18, 0xfe, 0xbf, 0xee,
  0x05, 0xe8, 0x4a, 0x32, 0xf7, 0x06, 0x07, 0x0e, 0x35, 0x01, 0xd4, 0x06,
  0x04, 0x6c, 0xdd, 0x06, 0x93, 0xe4, 0x0b, 0xf2, 0xe6, 0x88, 0xfe, 0x06,
  0xf9, 0x02, 0x02, 0xe8, 0x16, 0xef, 0x1a, 0x02, 0x12, 0x01, 0xd8, 0x0a,
  0x0f, 0xf9, 0x06, 0xef, 0x04, 0x02, 0x12, 0xf7, 0xdf, 0x15, 0x10, 0xff,
  0x06, 0x03, 0x0d, 0xe7, 0x0e, 0xe3, 0x03, 0x1a, 0xc2, 0xef, 0x9f, 0xfc,
  0x0a, 0xef, 0x09, 0x06, 0x0c, 0xf7, 0x24, 0xec, 0xf4, 0xe8, 0x42, 0xfc,
  0xf7, 0x4d, 0xef, 0xe2, 0xf0, 0x95, 0xdf, 0xe1, 0x0e, 0xee, 0x68, 0xde,
  0xd7, 0x00, 0x3d, 0x12, 0xcd, 0x0b, 0xfb, 0xf9, 0xe0, 0xed, 0xdf, 0x0b,
  0x43, 0x04, 0x13, 0x08, 0x01, 0xf8, 0xf7, 0x05, 0xd7, 0x22, 0xee, 0xdc,
  0x81, 0xd8, 0x0e, 0x13, 0xf7, 0xf1, 0xee, 0xfd, 0xe9, 0x40, 0xf9, 0xd9,
  0x05, 0x07, 0x1a, 0xff, 0x00, 0x55, 0x02, 0x06, 0x18, 0x0f, 0xca, 0xa4,
  0x01, 0xb1, 0xdb, 0xf0, 0xec, 0x09, 0x09, 0xdf, 0xfb, 0x04, 0x02, 0x04,
  0xfa, 0xf3, 0x05, 0x02, 0xd6, 0xfd, 0xf1, 0xe0, 0xec, 0xf9, 0x0c, 0x0c,
  0x30, 0x22, 0xfb, 0x16, 0x5e, 0x1a, 0xf1, 0x1c, 0xfd, 0xfe, 0x08, 0xf6,
  0xfc, 0xf6, 0x20, 0x18, 0x16, 0xe7, 0xf7, 0x0a, 0xfa, 0xf3, 0x1c, 0x29,
  0x2c, 0x05, 0x07, 0x81, 0xf6, 0x11, 0x10, 0xf9, 0xdf, 0x06, 0x06, 0xfc,
  0xec, 0xd6, 0x0f, 0x11, 0x14, 0x08, 0xf8, 0x0d, 0x34, 0xe1, 0x0d, 0xf3,
  0x0b, 0xf9, 0xc1, 0xfb, 0x5e, 0xba, 0x08, 0xe6, 0x0a, 0x10, 0xfd, 0xf4,
  0x06, 0xc4, 0x07, 0xfc, 0xfe, 0xfd, 0x07, 0xf3, 0xe8, 0x02, 0xdf, 0x7f,
  0x20, 0xe2, 0x15, 0xd7, 0x0f, 0x0a, 0xf4, 0xe8, 0x13, 0x11, 0x08, 0xfc,
  0x02, 0x9e, 0xe0, 0x19, 0xcc, 0x01, 0xe0, 0xe0, 0xfa, 0x10, 0x06, 0x0b,
  0xeb, 0x88, 0xe1, 0xbc, 0xf5, 0x11, 0xbd, 0xc3, 0x05, 0x06, 0xe7, 0x30,
  0xec, 0x15, 0xfe, 0xe5, 0xe7, 0x22, 0x00, 0x0a, 0xff, 0x09, 0xff, 0xf4,
  0xfe, 0x03, 0xf8, 0xfe, 0xef, 0x10, 0x09, 0x00, 0xe4, 0x13, 0x03, 0x00,
  0xfc, 0xa7, 0x81, 0x23, 0xc9, 0xfe, 0xe2, 0x0c, 0xce, 0xf8, 0xf4, 0xfc,
  0xb8, 0xfd, 0xbe, 0x8a, 0x01, 0x04, 0xd0, 0xfb, 0xf1, 0x09, 0x19, 0x17,
  0x04, 0xdb, 0xff, 0x0a, 0xb9, 0x03, 0xb2, 0x19, 0xf0, 0xd1, 0xff, 0xf4,
  0x09, 0x18, 0xff, 0x00, 0x16, 0xd3, 0xf3, 0xec, 0xe0, 0x87, 0xdc, 0x05,
  0xee, 0x04, 0xf4, 0xff, 0xf6, 0xfb, 0x1b, 0x16, 0xc9, 0xff, 0xfb, 0x02,
  0x03, 0xfe, 0x13, 0xff, 0x00, 0xf6, 0xee, 0xf9, 0xff, 0xfd, 0xdf, 0xfe,
  0xf4, 0xf5, 0x00, 0xdf, 0x24, 0xb0, 0x0f, 0xf2, 0x02, 0x00, 0x04, 0x03,
  0xfe, 0xc6, 0xfe, 0xe0, 0xf7, 0x81, 0x11, 0xff, 0xff, 0x12, 0x1f, 0x06,
  0xf4, 0xe8, 0x05, 0xff, 0xf5, 0x04, 0xfd, 0xb7, 0x00, 0x07, 0xf4, 0x0f,
  0xc8, 0xde, 0x07, 0xca, 0xfe, 0xfd, 0xfa, 0x14, 0xef, 0x0e, 0x04, 0x14,
  0x05, 0xf3, 0x00, 0x04, 0xf4, 0xd0, 0xfd, 0xfb, 0xe3, 0x06, 0x07, 0x81,
  0xda, 0xf2, 0xf2, 0x05, 0x05, 0x49, 0x06, 0x10, 0xf3, 0xfe, 0xe1, 0xce,
  0xfe, 0x25, 0xd4, 0xda, 0xfd, 0x0e, 0x0c, 0xb2, 0xe2, 0xf5, 0x0b, 0xf2,
  0x01, 0xec, 0x01, 0xff, 0xed, 0x05, 0xfc, 0xff, 0x0a, 0xc7, 0xe5, 0x03,
  0x0c, 0xcd, 0x04, 0xeb, 0xc9, 0xf6, 0xdb, 0xe8, 0xd7, 0x09, 0x00, 0xff,
  0xcc, 0xe7, 0x99, 0x1b, 0xe1, 0xd0, 0xd3, 0x0b, 0x02, 0xf9, 0xd4, 0x27,
  0x0a, 0x28, 0xf1, 0x88, 0x1b, 0xf0, 0x07, 0x00, 0x19, 0x10, 0xdb, 0xe2,
  0x12, 0xf7, 0x4f, 0x08, 0xf4, 0xf1, 0x02, 0x00, 0xfc, 0xdd, 0x00, 0x00,
  0x08, 0x03, 0xd9, 0xe6, 0x64, 0xdd, 0xa1, 0x9d, 0xfd, 0xea, 0xc3, 0xc0,
  0xeb, 0xe9, 0x03, 0x0c, 0x0b, 0x15, 0xf2, 0xfa, 0xe4, 0x02, 0xf9, 0x7f,
  0x2c, 0xd8, 0x0c, 0xc5, 0x13, 0x2a, 0x02, 0xfe, 0x04, 0x03, 0x62, 0xed,
  0x03, 0xb9, 0xed, 0x26, 0x15, 0xde, 0xa5, 0xe4, 0x04, 0x07, 0x11, 0x15,
  0xef, 0xdb, 0xe9, 0xfc, 0x01, 0x24, 0x32, 0xc0, 0x17, 0x13, 0xde, 0xe4,
  0xde, 0x29, 0x00, 0xdd, 0xe2, 0x06, 0x0d, 0x04, 0x00, 0x00, 0xfa, 0xbc,
  0x03, 0xf7, 0x09, 0xfa, 0xf9, 0xd2, 0x02, 0x19, 0xf8, 0x0b, 0xf1, 0xf4,
  0x0f, 0xf3, 0x89, 0x01, 0xcc, 0xfa, 0xdf, 0xe3, 0xfc, 0x01, 0x03, 0x01,
  0xbd, 0xfe, 0xa7, 0x1e, 0x02, 0xf5, 0x0a, 0x07, 0xed, 0xfb, 0x0b, 0xf6,
  0x01, 0x13, 0xf9, 0xe5, 0xba, 0xf8, 0x09, 0xf9, 0xea, 0x81, 0x11, 0x01,
  0x01, 0xea, 0xf4, 0xf6, 0x00, 0x03, 0x0c, 0x10, 0xfb, 0xf0, 0xd1, 0x0b,
  0xf7, 0xff, 0xff, 0x09, 0x00, 0xeb, 0x39, 0x0d, 0x2d, 0xc6, 0xec, 0x03,
  0xf2, 0x01, 0x2f, 0xfe, 0x00, 0xf6, 0x04, 0xd9, 0x13, 0xff, 0x16, 0xdc,
  0xbe, 0xf2, 0x05, 0x19, 0x10, 0x1a, 0x10, 0xff, 0x03, 0x08, 0x0c, 0x1a,
  0xfe, 0x82, 0xfe, 0x2a, 0x00, 0x43, 0x8b, 0xf0, 0x09, 0x04, 0x85, 0xfb,
  0x01, 0x01, 0xce, 0xf5, 0x54, 0xf0, 0x0a, 0x08, 0x02, 0x07, 0xeb, 0x81,
  0x20, 0x14, 0xa5, 0xfa, 0x18, 0x07, 0x05, 0x00, 0x1c, 0x09, 0x0e, 0x11,
  0x1d, 0x12, 0xff, 0x0a, 0x08, 0x05, 0x02, 0x12, 0xf7, 0x0c, 0xe5, 0x25,
  0xfa, 0x06, 0xe7, 0xec, 0x02, 0xe3, 0xf1, 0xfc, 0xfd, 0xfd, 0x10, 0xce,
  0x06, 0x0a, 0xef, 0x09, 0xee, 0x04, 0xf2, 0x06, 0x9f, 0xfe, 0xe1, 0x06,
  0x07, 0xd0, 0x02, 0x06, 0xfc, 0xf1, 0xfd, 0xeb, 0x7f, 0x9f, 0xde, 0x07,
  0xda, 0xef, 0xfc, 0x02, 0x0d, 0xfc, 0x0a, 0x16, 0xff, 0x03, 0xc0, 0xe4,
  0x0c, 0x02, 0x17, 0xe4, 0x0f, 0xbb, 0x05, 0x19, 0x05, 0xeb, 0x00, 0xe4,
  0xe3, 0xce, 0x0b, 0xfa, 0xe1, 0xf6, 0xfc, 0xff, 0x0f, 0xf5, 0xfd, 0x1b,
  0x16, 0xe9, 0xec, 0xf9, 0xfd, 0x0d, 0x05, 0x10, 0xe0, 0x02, 0x11, 0xf5,
  0x03, 0x1c, 0xd6, 0x08, 0xab, 0xd3, 0xdb, 0xf2, 0x06, 0xd5, 0xab, 0x81,
  0x34, 0xf9, 0xf8, 0xf8, 0x2e, 0x09, 0xfd, 0xc2, 0x07, 0xe9, 0x05, 0xdd,
  0x1c, 0xfb, 0x0c, 0xcf, 0xee, 0xe0, 0x08, 0xd1, 0x03, 0x0c, 0xc7, 0xf6,
  0x0e, 0x62, 0xfb, 0xff, 0xc2, 0xac, 0xdd, 0x2c, 0x0c, 0xee, 0x08, 0x02,
  0x00, 0xd6, 0x04, 0x01, 0x0d, 0xd2, 0x9a, 0xf0, 0x06, 0x2c, 0x0a, 0x82,
  0x06, 0x0b, 0xf5, 0xe8, 0xfc, 0xba, 0xf2, 0xf9, 0xf9, 0xe3, 0xf7, 0xde,
  0x05, 0xf9, 0xd7, 0xf9, 0xe8, 0xe7, 0xea, 0xb4, 0xec, 0xe7, 0x16, 0xf0,
  0xe8, 0xab, 0x08, 0xeb, 0x11, 0xf1, 0x17, 0x0e, 0xed, 0xf7, 0xde, 0xfd,
  0x0b, 0x05, 0x0c, 0xe3, 0x03, 0xef, 0x11, 0xee, 0xda, 0xec, 0x15, 0xd1,
  0xdc, 0x9a, 0xe7, 0xe8, 0x05, 0x00, 0xe6, 0xd8, 0xed, 0x18, 0xe9, 0xc7,
  0xe7, 0x03, 0xee, 0xfb, 0xeb, 0x1f, 0xfa, 0x16, 0xef, 0x81, 0xea, 0xfe,
  0xf2, 0xe6, 0x06, 0x01, 0xfa, 0xdc, 0x40, 0xf6, 0x2a, 0xf3, 0x00, 0x09,
  0x01, 0x04, 0x20, 0xe7, 0xfb, 0x15, 0xf3, 0xb9, 0x81, 0x00, 0x01, 0x15,
  0xc3, 0xe5, 0x02, 0xf3, 0xf8, 0xdd, 0x0d, 0xd0, 0xf5, 0x02, 0x0c, 0x1b,
  0x00, 0x84, 0xdc, 0x1d, 0xca, 0x32, 0xc1, 0xf6, 0x03, 0x23, 0x23, 0x08,
  0x06, 0x19, 0x11, 0xfc, 0xe7, 0xe4, 0x0a, 0xbb, 0xce, 0x07, 0x16, 0xaf,
  0xf6, 0x06, 0xfd, 0x00, 0x28, 0x04, 0xdb, 0x19, 0xcb, 0x3f, 0xf4, 0x17,
  0xed, 0xec, 0x00, 0x09, 0xe7, 0xdd, 0xf9, 0xf5, 0xf3, 0x26, 0x14, 0xde,
  0xf6, 0xf9, 0xfd, 0x06, 0x03, 0x33, 0xfe, 0xfa, 0x00, 0xf1, 0xee, 0xd2,
  0x01, 0xb0, 0xfb, 0xf7, 0xeb, 0x06, 0xe4, 0xea, 0x2b, 0xc0, 0xf5, 0xff,
  0xe6, 0xd0, 0xef, 0x04, 0x01, 0xff, 0xf6, 0xf6, 0x81, 0xe0, 0x06, 0x07,
  0xf9, 0xfe, 0xe4, 0xfb, 0x1c, 0xfd, 0xf6, 0xfb, 0x06, 0xf9, 0xe1, 0x08,
  0x04, 0xe8, 0xfd, 0x1a, 0x09, 0xf9, 0xd9, 0xfd, 0xf5, 0xd4, 0x0f, 0x12,
  0x0b, 0x0c, 0xf9, 0xe4, 0x07, 0x00, 0xec, 0xe7, 0xbb, 0x04, 0xe6, 0x06,
  0x07, 0x02, 0xb8, 0xfa, 0x03, 0x06, 0x05, 0x08, 0x26, 0x08, 0x1b, 0xf9,
  0xf2, 0x03, 0x23, 0x05, 0xc3, 0xfe, 0xfa, 0xfe, 0x0b, 0xfb, 0x00, 0xcb,
  0x01, 0xf6, 0x09, 0xff, 0x28, 0xf8, 0x04, 0xd4, 0x03, 0x06, 0xf3, 0x7f,
  0x1c, 0x01, 0x09, 0x03, 0xef, 0xef, 0xea, 0x00, 0x1e, 0xf6, 0x0f, 0x01,
  0x09, 0xdf, 0xf9, 0xf3, 0xec, 0x03, 0xe1, 0xf3, 0xfc, 0xfa, 0x0f, 0x0b,
  0x07, 0x0e, 0xfa, 0x1f, 0xed, 0x02, 0xf6, 0x02, 0x0b, 0xfd, 0x05, 0x2a,
  0x09, 0xfe, 0x0e, 0x20, 0x1d, 0x09, 0xfe, 0x0f, 0x20, 0x06, 0xff, 0x39,
  0x06, 0xe7, 0x02, 0xda, 0x0e, 0x81, 0x11, 0xfe, 0x05, 0x03, 0xf9, 0xe2,
  0xed, 0xff, 0x16, 0x02, 0x9c, 0x05, 0x01, 0xb1, 0x01, 0xdb, 0xfc, 0x07,
  0xeb, 0xf2, 0xcf, 0x26, 0x08, 0xd8, 0x4b, 0xc1, 0xfe, 0x0a, 0x38, 0xbc,
  0xe6, 0x36, 0xff, 0xe3, 0xbb, 0xf2, 0x1a, 0xf4, 0xc5, 0x13, 0x20, 0x0e,
  0xb2, 0xbd, 0xf0, 0x02, 0xff, 0xf2, 0x0e, 0xc9, 0xf9, 0xba, 0xf3, 0x00,
  0xed, 0x07, 0x8c, 0xff, 0x08, 0x04, 0xe3, 0xfd, 0xb9, 0x01, 0x0c, 0x10,
  0x03, 0xfd, 0x22, 0x05, 0x01, 0x03, 0xfa, 0x06, 0x18, 0xf7, 0x43, 0x21,
  0x2b, 0x1b, 0x00, 0x12, 0xba, 0x08, 0x22, 0x1d, 0xf6, 0xfa, 0x2e, 0xd3,
  0x05, 0x10, 0x04, 0xf6, 0xfd, 0xbf, 0x81, 0xfa, 0xfd, 0x08, 0x28, 0xf9,
  0x04, 0x00, 0x17, 0xfe, 0xec, 0x02, 0xfb, 0x08, 0x03, 0xbb, 0xfc, 0x12,
  0xf6, 0x08, 0x06, 0xeb, 0x09, 0xfb, 0x06, 0x07, 0x0f, 0x07, 0x1f, 0xe5,
  0xd2, 0x12, 0xfc, 0xfd, 0x04, 0xf8, 0x03, 0xe5, 0x00, 0x1b, 0xfc, 0xed,
  0xfd, 0xfd, 0xfe, 0xf3, 0xfc, 0x06, 0xf0, 0xf6, 0x08, 0x05, 0xfe, 0xeb,
  0x07, 0x08, 0xe8, 0xff, 0xf1, 0x05, 0x1b, 0xf7, 0x04, 0x0c, 0xe2, 0x00,
  0xfc, 0xd8, 0x06, 0xfd, 0x17, 0xf0, 0x07, 0xe7, 0x7f, 0xf2, 0xfd, 0x03,
  0x0b, 0xec, 0x01, 0x02, 0x1f, 0x08, 0x04, 0x04, 0x07, 0xff, 0xe4, 0xf5,
  0x10, 0x0b, 0x15, 0x02, 0x06, 0xce, 0x0a, 0x06, 0xff, 0xf9, 0x05, 0xe7,
  0x08, 0xd9, 0xfd, 0xea, 0xf1, 0xf9, 0xf7, 0xfb, 0xfc, 0x01, 0x05, 0x00,
  0x0f, 0xfa, 0x06, 0xff, 0x00, 0xe9, 0xe4, 0x03, 0xd1, 0xed, 0xff, 0x04,
  0x01, 0x01, 0xa7, 0x05, 0x01, 0xd9, 0x01, 0xdf, 0x03, 0x12, 0x07, 0x81,
  0x2d, 0xe2, 0x02, 0x06, 0xc8, 0xfc, 0x04, 0x14, 0xf1, 0xec, 0xe5, 0x4f,
  0x97, 0xdf, 0xfc, 0xbd, 0x0c, 0xfc, 0x0b, 0x19, 0xee, 0x08, 0x1c, 0xf8,
  0x09, 0xc5, 0xe8, 0xf6, 0xfb, 0x1e, 0xc0, 0x0a, 0xbd, 0x04, 0x12, 0x04,
  0xe8, 0x0d, 0xdd, 0xee, 0xdd, 0xfc, 0x0c, 0xe4, 0x08, 0x07, 0xf8, 0x0d,
  0xf9, 0xfc, 0xfb, 0xf9, 0xdb, 0xc7, 0x07, 0xf0, 0xf7, 0x10, 0x0e, 0xf1,
  0x0e, 0x02, 0xf0, 0xec, 0x04, 0x17, 0x03, 0x25, 0x37, 0x16, 0x00, 0x05,
  0x00, 0xfe, 0x81, 0xf5, 0xbb, 0x0e, 0x0e, 0x1c, 0xdd, 0x05, 0xf7, 0x0d,
  0xf1, 0xe9, 0xf7, 0x83, 0x06, 0x09, 0xc3, 0xec, 0xc9, 0x10, 0xf0, 0xde,
  0xd5, 0x13, 0x0b, 0x02, 0x49, 0xf5, 0xfd, 0xd2, 0xff, 0x95, 0xf4, 0x01,
  0xdd, 0x23, 0xf9, 0x11, 0xe7, 0x0d, 0xee, 0x1b, 0xfa, 0x03, 0x07, 0x1d,
  0x12, 0x06, 0x0a, 0x23, 0xf8, 0x0b, 0x1c, 0xe9, 0x14, 0xf2, 0xfe, 0x02,
  0x0b, 0x05, 0xaf, 0xff, 0x03, 0xf8, 0xeb, 0xfc, 0x10, 0x09, 0x18, 0x0b,
  0x12, 0x00, 0x05, 0xe2, 0x05, 0x81, 0x21, 0xe1, 0xfd, 0xf9, 0x1d, 0x0d,
  0xef, 0xe0, 0x01, 0xde, 0xfc, 0x30, 0xb9, 0x07, 0xfc, 0xf5, 0xb2, 0x03,
  0x04, 0x9a, 0xcd, 0xde, 0x4b, 0xfe, 0x05, 0xcd, 0x03, 0xf5, 0x06, 0xc2,
  0xc9, 0xf6, 0x05, 0xd9, 0x09, 0x00, 0xfc, 0xf9, 0xf2, 0xec, 0x15, 0x0a,
  0xe7, 0xe7, 0x0f, 0xfd, 0xfb, 0xc0, 0xfd, 0xfd, 0x0b, 0x02, 0xf2, 0xd8,
  0xfb, 0xfd, 0xfe, 0xff, 0x01, 0xfa, 0xee, 0x0b, 0xfe, 0xf1, 0x03, 0xda,
  0xfa, 0xe3, 0x1b, 0xfe, 0xf6, 0x00, 0xe9, 0xfa, 0x81, 0x1e, 0xf2, 0xfb,
  0xef, 0x13, 0xfe, 0xfc, 0x08, 0xed, 0xde, 0xe5, 0xc2, 0x08, 0xf9, 0xfe,
  0x21, 0x2a, 0x07, 0xed, 0xf7, 0xfd, 0xfd, 0xb4, 0x04, 0x05, 0xc2, 0xe7,
  0x06, 0x06, 0x0a, 0x9b, 0xf2, 0x00, 0xf5, 0x03, 0x07, 0xec, 0x1e, 0xd3,
  0x16, 0x0e, 0xfa, 0x12, 0xce, 0xf7, 0x01, 0xfb, 0xfa, 0xf5, 0xf7, 0x09,
  0x11, 0xfd, 0xe6, 0x06, 0xf9, 0xfa, 0x04, 0x01, 0xfd, 0x00, 0x04, 0xf8,
  0xf7, 0x09, 0x81, 0x05, 0x1a, 0x0f, 0x08, 0x06, 0x06, 0xef, 0x0c, 0x9c,
  0x1f, 0x1d, 0x08, 0xee, 0xcb, 0x02, 0x05, 0x18, 0x01, 0xd5, 0x01, 0xc3,
  0xea, 0xf5, 0xff, 0xea, 0x25, 0x09, 0xfa, 0x1a, 0xff, 0x02, 0xfd, 0x07,
  0x02, 0xa7, 0x07, 0xf9, 0x0c, 0x34, 0x8f, 0xfb, 0x06, 0xf2, 0xf5, 0x01,
  0x01, 0x25, 0xdd, 0xf8, 0xff, 0x06, 0x32, 0x19, 0xe8, 0x03, 0x00, 0xeb,
  0xfa, 0xfb, 0xe5, 0xdc, 0xf4, 0xf1, 0xd6, 0xd1, 0xe5, 0xd8, 0xfd, 0xbd,
  0xf5, 0xe8, 0x09, 0x0a, 0xdc, 0xea, 0x08, 0x5a, 0xf5, 0xe5, 0x07, 0xfc,
  0xa1, 0xd5, 0x1d, 0x12, 0x08, 0xfd, 0x05, 0xd8, 0xf3, 0x06, 0xc5, 0xf9,
  0xe8, 0x11, 0x2f, 0xa1, 0xe8, 0xf1, 0xe9, 0xc3, 0xf8, 0x15, 0xdd, 0xb8,
  0x09, 0x55, 0xec, 0xf9, 0xfb, 0x05, 0x01, 0xc0, 0xbf, 0x09, 0x10, 0xb6,
  0xe2, 0xf2, 0xfd, 0xfb, 0xc4, 0x0f, 0x81, 0xea, 0xe9, 0xce, 0xe4, 0xf4,
  0x09, 0xe0, 0xc1, 0xdd, 0xff, 0xe8, 0xfa, 0x1a, 0x91, 0xee, 0xf2, 0x02,
  0xf1, 0xfd, 0x03, 0xfb, 0xff, 0x04, 0x05, 0xee, 0x42, 0xf3, 0xbf, 0x06,
  0xe5, 0xf7, 0xea, 0x09, 0x81, 0x0a, 0xad, 0x02, 0xfb, 0x19, 0x0a, 0xdc,
  0xed, 0xb7, 0x00, 0x1b, 0x01, 0x1d, 0xe4, 0x02, 0xf3, 0x1f, 0xeb, 0xde,
  0xf1, 0x24, 0x11, 0xc3, 0x1d, 0x00, 0x07, 0xe2, 0x07, 0xdb, 0x03, 0xde,
  0x19, 0x01, 0xca, 0xd1, 0xf5, 0xf6, 0xfb, 0xf0, 0xf9, 0x1c, 0xf0, 0xe3,
  0xb0, 0xe6, 0x07, 0xf0, 0xfd, 0xdd, 0x07, 0xec, 0xe1, 0x0b, 0x15, 0x81,
  0xfb, 0xdd, 0xeb, 0xfd, 0x05, 0x39, 0x06, 0xfe, 0x00, 0xf6, 0xe1, 0xdc,
  0xfc, 0xa3, 0xd4, 0xdd, 0x13, 0x00, 0xdf, 0xec, 0x0d, 0xec, 0x28, 0xfb,
  0xff, 0xf7, 0xf1, 0x0d, 0xee, 0x08, 0xea, 0x0d, 0xa1, 0xe7, 0x01, 0x05,
  0x03, 0x1b, 0xe3, 0xdd, 0x0e, 0xda, 0xe0, 0x8c, 0x08, 0xfe, 0xd8, 0x09,
  0x0c, 0xc3, 0x0d, 0xf8, 0xe1, 0xf7, 0xe2, 0x10, 0xf8, 0xea, 0xfe, 0x0c,
  0xd5, 0x18, 0x04, 0xeb, 0x05, 0xfb, 0xf8, 0xf5, 0x01, 0x09, 0xdf, 0x0b,
  0x13, 0x63, 0x61, 0xf0, 0x04, 0x0f, 0xfb, 0xe2, 0x50, 0xe3, 0xe6, 0x14,
  0x0a, 0x15, 0xac, 0xf9, 0x1d, 0xea, 0x27, 0xbf, 0xef, 0x0e, 0x21, 0x71,
  0x18, 0xde, 0xeb, 0x04, 0xc0, 0x09, 0x03, 0xf9, 0xed, 0x1c, 0xe6, 0x1f,
  0x59, 0xf3, 0xde, 0x23, 0x53, 0x0d, 0xeb, 0x4e, 0x1a, 0x27, 0x49, 0x07,
  0xb9, 0xda, 0xce, 0xfc, 0xd2, 0x7f, 0x43, 0xff, 0x06, 0xfd, 0xee, 0xf2,
  0xda, 0x49, 0xdb, 0x34, 0xbd, 0x29, 0x29, 0xee, 0xe5, 0xd7, 0xf1, 0x51,
  0xf8, 0xf7, 0x03, 0x00, 0x0f, 0x1a, 0x01, 0x04, 0xfd, 0x02, 0xfd, 0xb2,
  0x01, 0xfe, 0x09, 0xfa, 0x00, 0xeb, 0x00, 0xe8, 0xfe, 0x06, 0xf4, 0xef,
  0xfc, 0x09, 0x81, 0xf6, 0xdc, 0xfc, 0xfe, 0xd9, 0x0a, 0xf8, 0x07, 0x00,
  0x02, 0x07, 0xad, 0x0f, 0x03, 0x01, 0x09, 0xed, 0xf7, 0xfd, 0xf9, 0xf5,
  0xfe, 0xc3, 0xff, 0xf4, 0xc6, 0xfe, 0x0e, 0x16, 0x04, 0x95, 0xf9, 0x03,
  0xec, 0xe6, 0xfa, 0xf2, 0x01, 0xec, 0x0a, 0x11, 0x07, 0x08, 0xcd, 0xfb,
  0x01, 0x03, 0xe4, 0x03, 0x08, 0x00, 0x00, 0x00, 0x06, 0xee, 0xff, 0xff,
  0x04, 0x00, 0x00, 0x00, 0x18, 0x00, 0x00, 0x00, 0xd8, 0x94, 0x26, 0xbe,
  0x5a, 0xa2, 0x97, 0xbe, 0xd9, 0x94, 0x26, 0xbe, 0xdd, 0x1c, 0x95, 0x3d,
  0x0c, 0x6c, 0x78, 0x3d, 0x7f, 0x41, 0x9f, 0xbd, 0x2a, 0xee, 0xff, 0xff,
  0x04, 0x00, 0x00, 0x00, 0xe8, 0x08, 0x00, 0x00, 0x82, 0xc5, 0x0d, 0xbc,
  0x1e, 0x5a, 0xa7, 0xbc, 0x04, 0xb8, 0xa6, 0x3b, 0xf0, 0x55, 0x7c, 0x3c,
  0x49, 0xd7, 0xbf, 0x3c, 0x13, 0xb1, 0xb3, 0x3c, 0xc2, 0x46, 0xcb, 0xbb,
  0xd8, 0xaa, 0x0c, 0xbc, 0x48, 0x8a, 0x50, 0xbc, 0x0a, 0xb7, 0xa7, 0x3c,
  0x03, 0x5c, 0x5c, 0x3c, 0x4d, 0xa7, 0x7b, 0x3b, 0xe2, 0x5b, 0x04, 0x3c,
  0x26, 0x8e, 0x5e, 0xbc, 0x30, 0xcc, 0x0a, 0x3c, 0xcc, 0x05, 0x0b, 0xbc,
  0x55, 0x60, 0xfa, 0x3a, 0x8b, 0x04, 0x4c, 0x3c, 0x18, 0x2b, 0x6f, 0x3c,
  0xfe, 0x14, 0x62, 0xbc, 0x4d, 0x6d, 0xc3, 0xbc, 0x15, 0x4e, 0x91, 0xbc,
  0xb6, 0x8d, 0xaf, 0x3c, 0x4b, 0xcc, 0x9e, 0xbc, 0xdd, 0xa3, 0x4d, 0x3c,
  0x23, 0x06, 0x4e, 0xbc, 0xb6, 0x17, 0x57, 0xbc, 0x40, 0xc7, 0x4f, 0x3c,
  0x6c, 0x05, 0xbd, 0x3c, 0xb0, 0x7f, 0x25, 0xbb, 0x26, 0xb4, 0x28, 0x3b,
  0x0f, 0xbd, 0xe4, 0xba, 0x37, 0x3b, 0x4d, 0x3c, 0x99, 0x1a, 0x45, 0xbc,
  0xfe, 0xe6, 0xa2, 0x3c, 0xb0, 0xa5, 0x77, 0x3c, 0x8d, 0x0b, 0x03, 0xbc,
  0x6e, 0x4f, 0xf7, 0xbb, 0x85, 0x30, 0x56, 0x3c, 0xc9, 0x81, 0xeb, 0x37,
  0xfb, 0x6b, 0x88, 0x3c, 0xcf, 0x8e, 0x2c, 0xbc, 0xa2, 0x9a, 0x1a, 0xbc,
  0xa1, 0x78, 0xc0, 0x3c, 0xfc, 0xe6, 0x31, 0x3c, 0x8b, 0x26, 0xf9, 0x3b,
  0x1d, 0xfc, 0x33, 0x3c, 0xa7, 0x4a, 0x39, 0xbc, 0x67, 0x39, 0x85, 0x3c,
  0x62, 0x80, 0x34, 0x3c, 0x0d, 0x05, 0x88, 0x3c, 0x10, 0x13, 0xc7, 0xbc,
  0x71, 0x3d, 0x62, 0x3c, 0x7b, 0x35, 0x84, 0x3b, 0xca, 0x7f, 0xf1, 0xbb,
  0xab, 0x4f, 0x99, 0xbc, 0xe8, 0x77, 0x24, 0x3c, 0xb8, 0xba, 0xf4, 0xbb,
  0xae, 0x0d, 0x01, 0xbc, 0x19, 0x09, 0xbf, 0xbb, 0xbd, 0xe3, 0x58, 0x3c,
  0x6f, 0xf7, 0xb4, 0x3c, 0x78, 0xc9, 0x0f, 0x3d, 0x7a, 0x1b, 0xf8, 0xbb,
  0x6a, 0x0c, 0x51, 0xb9, 0x38, 0xd2, 0xec, 0x38, 0x80, 0xbf, 0x3e, 0xbc,
  0x82, 0x92, 0x24, 0xbc, 0xde, 0x1b, 0x78, 0x3c, 0x0e, 0x17, 0xfd, 0xbb,
  0x7b, 0xd5, 0x21, 0xbc, 0x63, 0x50, 0xa2, 0x3c, 0xda, 0x9a, 0x4a, 0xbb,
  0x46, 0x1b, 0xf1, 0xbb, 0x6e, 0x7b, 0x66, 0xbc, 0x03, 0xc2, 0xb2, 0xbb,
  0x96, 0xff, 0xa3, 0xbb, 0x89, 0xbf, 0x13, 0xbc, 0x5e, 0x1e, 0xb2, 0xba,
  0x3d, 0xab, 0x57, 0xbc, 0x75, 0xf9, 0xe5, 0x3c, 0x21, 0xd9, 0x28, 0x3c,
  0x5a, 0x51, 0x08, 0xbc, 0x93, 0x5d, 0xf1, 0xbb, 0x09, 0x26, 0xc0, 0xbb,
  0xc6, 0xbd, 0xea, 0xbb, 0xb9, 0xdf, 0x85, 0x3c, 0xce, 0x07, 0x41, 0xbc,
  0x93, 0x7e, 0xb9, 0xbc, 0x74, 0x6b, 0xe5, 0x3c, 0xce, 0xfc, 0x39, 0x3c,
  0x7a, 0x35, 0x78, 0x3b, 0x2c, 0x46, 0xa0, 0x3c, 0xdd, 0xf0, 0x1f, 0xbc,
  0x13, 0x87, 0x44, 0xbc, 0x54, 0xe3, 0x15, 0x3d, 0x8b, 0x03, 0xce, 0x3c,
  0x21, 0xb6, 0x5a, 0xbc, 0xcd, 0x2c, 0x50, 0xbc, 0x9d, 0xb3, 0xe8, 0xbc,
  0xb4, 0x16, 0x89, 0xbc, 0x7a, 0xae, 0xb7, 0xbc, 0x64, 0x99, 0x68, 0xbc,
  0xca, 0xc9, 0xbd, 0x3c, 0xf2, 0xde, 0x99, 0xbc, 0xf4, 0x09, 0x56, 0xbc,
  0x6b, 0x42, 0xad, 0xba, 0x82, 0xda, 0x78, 0x3c, 0x46, 0xae, 0x03, 0x3d,
  0xc2, 0x8d, 0xd3, 0x3c, 0x10, 0x2f, 0x9d, 0xbc, 0x43, 0xa6, 0xc8, 0x3c,
  0x27, 0xf5, 0xba, 0x3a, 0x84, 0x9f, 0xa5, 0xbc, 0xd7, 0xb9, 0x3b, 0x3d,
  0x4f, 0x0e, 0x86, 0xbc, 0x91, 0x2f, 0xa1, 0xbc, 0xaf, 0x65, 0x5d, 0xbc,
  0xca, 0x57, 0x66, 0xbc, 0x8c, 0x20, 0xae, 0x3c, 0x6a, 0x1f, 0xe3, 0x3c,
  0x9b, 0x29, 0x41, 0x3d, 0x85, 0xbf, 0xd9, 0x3c, 0xf7, 0xc8, 0x83, 0xbc,
  0x2c, 0x18, 0xc2, 0xbc, 0x38, 0xe8, 0xac, 0xbb, 0x1b, 0x02, 0x2f, 0xbc,
  0x5d, 0x90, 0xbc, 0x3c, 0xc9, 0x46, 0x07, 0x3d, 0xda, 0x22, 0x41, 0xbc,
  0x29, 0x1d, 0x6e, 0x3c, 0x3e, 0xbd, 0x8d, 0x3c, 0x73, 0x28, 0x0f, 0xbc,
  0x38, 0x4c, 0xda, 0x3c, 0xbd, 0x3b, 0x80, 0xbc, 0x80, 0x2e, 0x62, 0xbc,
  0xe8, 0xb9, 0xd0, 0x3c, 0x0b, 0x9f, 0xe2, 0x3c, 0x8b, 0x48, 0xe7, 0xba,
  0x36, 0xf8, 0x7e, 0x3c, 0xbe, 0xe5, 0xa1, 0x3c, 0x17, 0xd8, 0x97, 0x3c,
  0x65, 0xf5, 0x86, 0xbc, 0x2b, 0x59, 0x55, 0xbc, 0xe0, 0x3a, 0x56, 0x3c,
  0x45, 0x9e, 0xa2, 0xbc, 0xe7, 0xb5, 0x97, 0xbc, 0x84, 0x2c, 0x96, 0x3c,
  0xf0, 0xb9, 0x9d, 0x3c, 0x34, 0x4a, 0x95, 0xbb, 0x24, 0xa1, 0x1f, 0xbc,
  0xb2, 0x7e, 0xac, 0x3c, 0x2a, 0x36, 0x1a, 0x3d, 0x8e, 0x5f, 0x0a, 0x3d,
  0x52, 0x2c, 0x0f, 0xbc, 0xfd, 0x20, 0x54, 0xbc, 0xc4, 0xee, 0xa9, 0xbc,
  0x42, 0x3a, 0x99, 0xbb, 0x26, 0xc1, 0xd3, 0xbb, 0x0d, 0xa7, 0x12, 0x3d,
  0xe2, 0x7b, 0x4c, 0x3d, 0x30, 0x37, 0xbe, 0x3c, 0x24, 0xcd, 0xc4, 0x3c,
  0x07, 0x5c, 0xbe, 0x3c, 0x0d, 0xe4, 0xdf, 0x3c, 0x3c, 0x99, 0xa2, 0xbc,
  0x47, 0xc1, 0xbb, 0x3c, 0xc2, 0x11, 0x0a, 0xbc, 0x28, 0xf6, 0xe0, 0x3c,
  0x8b, 0x71, 0xab, 0xbc, 0x18, 0x85, 0x28, 0xbc, 0xc0, 0x38, 0x9f, 0xbb,
  0xc2, 0x49, 0xd2, 0x3c, 0xd5, 0x44, 0x6d, 0xbb, 0x32, 0x2b, 0x1a, 0x3d,
  0xf5, 0x32, 0x71, 0xbc, 0x2f, 0xa7, 0x77, 0x3c, 0x37, 0xa0, 0x94, 0xbc,
  0x9b, 0x59, 0xa4, 0xbc, 0x9c, 0x18, 0x92, 0xbb, 0xd0, 0xa5, 0xa3, 0xbb,
  0xa9, 0x0c, 0x92, 0xbc, 0xaf, 0x58, 0xc4, 0xbc, 0xc4, 0xc6, 0x12, 0x3d,
  0xf0, 0xd9, 0x74, 0xbc, 0xd1, 0x04, 0x25, 0x3c, 0xf2, 0x4f, 0x74, 0xba,
  0x85, 0xfc, 0x61, 0xbc, 0xb7, 0xc0, 0x5a, 0xbc, 0x4f, 0xa4, 0xb8, 0xbc,
  0x7b, 0xc5, 0x0d, 0xbc, 0x20, 0x5a, 0xa7, 0xbc, 0x02, 0xb8, 0xa6, 0x3b,
  0xef, 0x55, 0x7c, 0x3c, 0x48, 0xd7, 0xbf, 0x3c, 0x12, 0xb1, 0xb3, 0x3c,
  0xc1, 0x46, 0xcb, 0xbb, 0xd7, 0xaa, 0x0c, 0xbc, 0x44, 0x8a, 0x50, 0xbc,
  0x0b, 0xb7, 0xa7, 0x3c, 0x02, 0x5c, 0x5c, 0x3c, 0x4f, 0xa7, 0x7b, 0x3b,
  0xe2, 0x5b, 0x04, 0x3c, 0x22, 0x8e, 0x5e, 0xbc, 0x30, 0xcc, 0x0a, 0x3c,
  0xcc, 0x05, 0x0b, 0xbc, 0x58, 0x60, 0xfa, 0x3a, 0x8f, 0x04, 0x4c, 0x3c,
  0x16, 0x2b, 0x6f, 0x3c, 0xfd, 0x14, 0x62, 0xbc, 0x4d, 0x6d, 0xc3, 0xbc,
  0x16, 0x4e, 0x91, 0xbc, 0xb7, 0x8d, 0xaf, 0x3c, 0x4b, 0xcc, 0x9e, 0xbc,
  0xe0, 0xa3, 0x4d, 0x3c, 0x28, 0x06, 0x4e, 0xbc, 0xb7, 0x17, 0x57, 0xbc,
  0x40, 0xc7, 0x4f, 0x3c, 0x69, 0x05, 0xbd, 0x3c, 0xb2, 0x7f, 0x25, 0xbb,
  0x1e, 0xb4, 0x28, 0x3b, 0x06, 0xbd, 0xe4, 0xba, 0x3d, 0x3b, 0x4d, 0x3c,
  0x99, 0x1a, 0x45, 0xbc, 0xff, 0xe6, 0xa2, 0x3c, 0xaf, 0xa5, 0x77, 0x3c,
  0x8a, 0x0b, 0x03, 0xbc, 0x70, 0x4f, 0xf7, 0xbb, 0x82, 0x30, 0x56, 0x3c,
  0x67, 0x7f, 0xeb, 0x37, 0xfb, 0x6b, 0x88, 0x3c, 0xcf, 0x8e, 0x2c, 0xbc,
  0xa5, 0x9a, 0x1a, 0xbc, 0xa1, 0x78, 0xc0, 0x3c, 0xfc, 0xe6, 0x31, 0x3c,
  0x89, 0x26, 0xf9, 0x3b, 0x1b, 0xfc, 0x33, 0x3c, 0xa1, 0x4a, 0x39, 0xbc,
  0x67, 0x39, 0x85, 0x3c, 0x61, 0x80, 0x34, 0x3c, 0x0c, 0x05, 0x88, 0x3c,
  0x13, 0x13, 0xc7, 0xbc, 0x72, 0x3d, 0x62, 0x3c, 0x77, 0x35, 0x84, 0x3b,
  0xc8, 0x7f, 0xf1, 0xbb, 0xa9, 0x4f, 0x99, 0xbc, 0xe7, 0x77, 0x24, 0x3c,
  0xba, 0xba, 0xf4, 0xbb, 0xab, 0x0d, 0x01, 0xbc, 0x1a, 0x09, 0xbf, 0xbb,
  0xbc, 0xe3, 0x58, 0x3c, 0x6e, 0xf7, 0xb4, 0x3c, 0x77, 0xc9, 0x0f, 0x3d,
  0x7a, 0x1b, 0xf8, 0xbb, 0x9f, 0x0d, 0x51, 0xb9, 0x99, 0xd3, 0xec, 0x38,
  0x7e, 0xbf, 0x3e, 0xbc, 0x82, 0x92, 0x24, 0xbc, 0xdf, 0x1b, 0x78, 0x3c,
  0x12, 0x17, 0xfd, 0xbb, 0x7b, 0xd5, 0x21, 0xbc, 0x66, 0x50, 0xa2, 0x3c,
  0xdd, 0x9a, 0x4a, 0xbb, 0x4c, 0x1b, 0xf1, 0xbb, 0x6c, 0x7b, 0x66, 0xbc,
  0xfe, 0xc1, 0xb2, 0xbb, 0x93, 0xff, 0xa3, 0xbb, 0x8b, 0xbf, 0x13, 0xbc,
  0x6c, 0x1e, 0xb2, 0xba, 0x3f, 0xab, 0x57, 0xbc, 0x75, 0xf9, 0xe5, 0x3c,
  0x22, 0xd9, 0x28, 0x3c, 0x58, 0x51, 0x08, 0xbc, 0x8c, 0x5d, 0xf1, 0xbb,
  0x09, 0x26, 0xc0, 0xbb, 0xc9, 0xbd, 0xea, 0xbb, 0xb9, 0xdf, 0x85, 0x3c,
  0xcd, 0x07, 0x41, 0xbc, 0x92, 0x7e, 0xb9, 0xbc, 0x77, 0x6b, 0xe5, 0x3c,
  0xcf, 0xfc, 0x39, 0x3c, 0x80, 0x35, 0x78, 0x3b, 0x2c, 0x46, 0xa0, 0x3c,
  0xdd, 0xf0, 0x1f, 0xbc, 0x14, 0x87, 0x44, 0xbc, 0xc2, 0x2e, 0x41, 0x3c,
  0x30, 0x8d, 0x73, 0x3c, 0xb0, 0x56, 0x1d, 0xbd, 0xf5, 0x0e, 0x09, 0xbc,
  0x10, 0xc1, 0x9d, 0x3b, 0x2c, 0xe2, 0x3b, 0xbb, 0xb6, 0x77, 0xc0, 0x3b,
  0xca, 0x5f, 0xa1, 0xbc, 0x10, 0xfa, 0xe0, 0x3b, 0x2a, 0x47, 0x80, 0xbc,
  0x34, 0x94, 0x0e, 0xbc, 0x0c, 0x60, 0x9d, 0x3b, 0xa1, 0x1d, 0x25, 0xbb,
  0x69, 0x5d, 0x99, 0xbc, 0x0f, 0x80, 0xa0, 0xbb, 0xdb, 0x06, 0x54, 0xbc,
  0x51, 0x7b, 0xcf, 0xbc, 0xa1, 0xef, 0xe5, 0x3b, 0xac, 0x00, 0x03, 0x3c,
  0x6d, 0x4f, 0x63, 0xbb, 0x9d, 0x55, 0x99, 0xbc, 0x1e, 0xda, 0x81, 0x3c,
  0xde, 0xb0, 0xb0, 0x3b, 0x25, 0xf0, 0x88, 0xbc, 0x4c, 0x60, 0xbc, 0x3b,
  0xe9, 0xc5, 0x70, 0x3c, 0x35, 0x4d, 0xe0, 0xb9, 0x42, 0x9d, 0xee, 0x3b,
  0x68, 0x14, 0x17, 0x3b, 0x39, 0x79, 0x1b, 0x3a, 0xc5, 0xf5, 0xa4, 0x3b,
  0x9a, 0x97, 0xe2, 0x3b, 0x92, 0x7c, 0x0e, 0x3c, 0x39, 0x3a, 0xca, 0xbb,
  0x54, 0x82, 0x17, 0x3a, 0x68, 0x91, 0x46, 0xbb, 0x16, 0xd3, 0x14, 0x3b,
  0x84, 0xe2, 0xd1, 0xbc, 0x06, 0x2a, 0xad, 0x3b, 0x9c, 0xab, 0xd4, 0x3c,
  0x55, 0x53, 0x94, 0xba, 0x13, 0x7a, 0x39, 0xbc, 0xdd, 0x57, 0xb4, 0x3b,
  0x2f, 0x20, 0x0f, 0x3d, 0x52, 0x24, 0x42, 0x3b, 0xdb, 0xf9, 0x83, 0x3b,
  0xcc, 0xa2, 0xa7, 0x3a, 0xf7, 0xc3, 0xde, 0x3b, 0x22, 0xe4, 0xd5, 0x3a,
  0xa9, 0x08, 0x0d, 0xbb, 0x9e, 0x1f, 0xe4, 0x3b, 0x3e, 0xda, 0x39, 0xbc,
