/*
 * Copyright (c) 2024 EdgeImpulse Inc.
 *
 * Generated by Edge Impulse and licensed under the applicable Edge Impulse
 * Terms of Service. Community and Professional Terms of Service
 * (https://docs.edgeimpulse.com/page/terms-of-service) or Enterprise Terms of
 * Service (https://docs.edgeimpulse.com/page/enterprise-terms-of-service),
 * according to your product plan subscription (the “License”).
 *
 * This software, documentation and other associated files (collectively referred
 * to as the “Software”) is a single SDK variation generated by the Edge Impulse
 * platform and requires an active paid Edge Impulse subscription to use this
 * Software for any purpose.
 *
 * You may NOT use this Software unless you have an active Edge Impulse subscription
 * that meets the eligibility requirements for the applicable License, subject to
 * your full and continued compliance with the terms and conditions of the License,
 * including without limitation any usage restrictions under the applicable License.
 *
 * If you do not have an active Edge Impulse product plan subscription, or if use
 * of this Software exceeds the usage limitations of your Edge Impulse product plan
 * subscription, you are not permitted to use this Software and must immediately
 * delete and erase all copies of this Software within your control or possession.
 * Edge Impulse reserves all rights and remedies available to enforce its rights.
 *
 * Unless required by applicable law or agreed to in writing, the Software is
 * distributed on an "AS IS" BASIS, WITHOUT WARRANTIES OR CONDITIONS OF ANY KIND,
 * either express or implied. See the License for the specific language governing
 * permissions, disclaimers and limitations under the License.
 */

#ifndef _EI_CLASSIFIER_TFLITE_LEARN_12_H_
#define _EI_CLASSIFIER_TFLITE_LEARN_12_H_

#define EI_CLASSIFIER_TFLITE_LEARN_12_ARENA_SIZE     3193
const size_t tflite_learn_12_arena_size = 3193;

#if defined __GNUC__
#define ALIGN(X) __attribute__((aligned(X)))
#elif defined _MSC_VER
#define ALIGN(X) __declspec(align(X))
#elif defined __TASKING__
#define ALIGN(X) __align(X)
#else
#define ALIGN(X)
#endif

ALIGN(16) const unsigned char tflite_learn_12[] = {
  0x1c, 0x00, 0x00, 0x00, 0x54, 0x46, 0x4c, 0x33, 0x14, 0x00, 0x20, 0x00,
  0x1c, 0x00, 0x18, 0x00, 0x14, 0x00, 0x10, 0x00, 0x0c, 0x00, 0x00, 0x00,
  0x08, 0x00, 0x04, 0x00, 0x14, 0x00, 0x00, 0x00, 0x1c, 0x00, 0x00, 0x00,
  0x8c, 0x00, 0x00, 0x00, 0xe4, 0x00, 0x00, 0x00, 0x60, 0x19, 0x00, 0x00,
  0x70, 0x19, 0x00, 0x00, 0x34, 0x20, 0x00, 0x00, 0x03, 0x00, 0x00, 0x00,
  0x01, 0x00, 0x00, 0x00, 0x10, 0x00, 0x00, 0x00, 0x00, 0x00, 0x0a, 0x00,
  0x10, 0x00, 0x0c, 0x00, 0x08, 0x00, 0x04, 0x00, 0x0a, 0x00, 0x00, 0x00,
  0x0c, 0x00, 0x00, 0x00, 0x1c, 0x00, 0x00, 0x00, 0x3c, 0x00, 0x00, 0x00,
  0x0f, 0x00, 0x00, 0x00, 0x73, 0x65, 0x72, 0x76, 0x69, 0x6e, 0x67, 0x5f,
  0x64, 0x65, 0x66, 0x61, 0x75, 0x6c, 0x74, 0x00, 0x01, 0x00, 0x00, 0x00,
  0x04, 0x00, 0x00, 0x00, 0x9c, 0xff, 0xff, 0xff, 0x0a, 0x00, 0x00, 0x00,
  0x04, 0x00, 0x00, 0x00, 0x08, 0x00, 0x00, 0x00, 0x6f, 0x75, 0x74, 0x70,
  0x75, 0x74, 0x5f, 0x30, 0x00, 0x00, 0x00, 0x00, 0x01, 0x00, 0x00, 0x00,
  0x04, 0x00, 0x00, 0x00, 0x86, 0xe6, 0xff, 0xff, 0x04, 0x00, 0x00, 0x00,
  0x01, 0x00, 0x00, 0x00, 0x78, 0x00, 0x00, 0x00, 0x02, 0x00, 0x00, 0x00,
  0x34, 0x00, 0x00, 0x00, 0x04, 0x00, 0x00, 0x00, 0xdc, 0xff, 0xff, 0xff,
  0x0d, 0x00, 0x00, 0x00, 0x04, 0x00, 0x00, 0x00, 0x13, 0x00, 0x00, 0x00,
  0x43, 0x4f, 0x4e, 0x56, 0x45, 0x52, 0x53, 0x49, 0x4f, 0x4e, 0x5f, 0x4d,
  0x45, 0x54, 0x41, 0x44, 0x41, 0x54, 0x41, 0x00, 0x08, 0x00, 0x0c, 0x00,
  0x08, 0x00, 0x04, 0x00, 0x08, 0x00, 0x00, 0x00, 0x0c, 0x00, 0x00, 0x00,
  0x04, 0x00, 0x00, 0x00, 0x13, 0x00, 0x00, 0x00, 0x6d, 0x69, 0x6e, 0x5f,
  0x72, 0x75, 0x6e, 0x74, 0x69, 0x6d, 0x65, 0x5f, 0x76, 0x65, 0x72, 0x73,
  0x69, 0x6f, 0x6e, 0x00, 0x0e, 0x00, 0x00, 0x00, 0x78, 0x18, 0x00, 0x00,
  0x70, 0x18, 0x00, 0x00, 0x54, 0x18, 0x00, 0x00, 0x24, 0x18, 0x00, 0x00,
  0xec, 0x17, 0x00, 0x00, 0xe0, 0x16, 0x00, 0x00, 0x6c, 0x16, 0x00, 0x00,
  0xac, 0x00, 0x00, 0x00, 0xa4, 0x00, 0x00, 0x00, 0x9c, 0x00, 0x00, 0x00,
  0x94, 0x00, 0x00, 0x00, 0x8c, 0x00, 0x00, 0x00, 0x6c, 0x00, 0x00, 0x00,
  0x04, 0x00, 0x00, 0x00, 0x2e, 0xe7, 0xff, 0xff, 0x04, 0x00, 0x00, 0x00,
  0x58, 0x00, 0x00, 0x00, 0x0c, 0x00, 0x00, 0x00, 0x08, 0x00, 0x0e, 0x00,
  0x08, 0x00, 0x04, 0x00, 0x08, 0x00, 0x00, 0x00, 0x10, 0x00, 0x00, 0x00,
  0x28, 0x00, 0x00, 0x00, 0x00, 0x00, 0x06, 0x00, 0x08, 0x00, 0x04, 0x00,
  0x06, 0x00, 0x00, 0x00, 0x04, 0x00, 0x00, 0x00, 0x01, 0x00, 0x00, 0x00,
  0xeb, 0x03, 0x00, 0x00, 0x00, 0x00, 0x0a, 0x00, 0x10, 0x00, 0x0c, 0x00,
  0x08, 0x00, 0x04, 0x00, 0x0a, 0x00, 0x00, 0x00, 0x03, 0x00, 0x00, 0x00,
  0x02, 0x00, 0x00, 0x00, 0x04, 0x00, 0x00, 0x00, 0x06, 0x00, 0x00, 0x00,
  0x32, 0x2e, 0x31, 0x31, 0x2e, 0x31, 0x00, 0x00, 0x92, 0xe7, 0xff, 0xff,
  0x04, 0x00, 0x00, 0x00, 0x10, 0x00, 0x00, 0x00, 0x31, 0x2e, 0x31, 0x34,
  0x2e, 0x30, 0x00, 0x00, 0x00, 0x00, 0x00, 0x00, 0x00, 0x00, 0x00, 0x00,
  0x7c, 0xe7, 0xff, 0xff, 0x80, 0xe7, 0xff, 0xff, 0x84, 0xe7, 0xff, 0xff,
  0x88, 0xe7, 0xff, 0xff, 0xbe, 0xe7, 0xff, 0xff, 0x04, 0x00, 0x00, 0x00,
  0xae, 0x15, 0x00, 0x00, 0xfe, 0x62, 0x40, 0x8e, 0x32, 0x08, 0x0f, 0x26,
  0xf9, 0xd2, 0x1b, 0x32, 0x61, 0x94, 0xfb, 0x25, 0x5f, 0x9d, 0x92, 0x2f,
  0x45, 0x1c, 0xd8, 0xe6, 0x18, 0xf0, 0xa1, 0x39, 0x2e, 0x4c, 0xa1, 0x19,
  0x30, 0x29, 0x02, 0xab, 0x5a, 0xa3, 0x9d, 0xb5, 0xe6, 0xe9, 0xe5, 0x5f,
  0x46, 0x23, 0xcb, 0xa8, 0x27, 0x8e, 0x46, 0xca, 0xab, 0xd3, 0x2f, 0x05,
  0x17, 0xc9, 0xe2, 0x60, 0xbd, 0xee, 0xb3, 0x5e, 0x1c, 0x26, 0x1f, 0x69,
  0x0b, 0x1e, 0x1a, 0x3f, 0x23, 0x04, 0x31, 0x55, 0x9c, 0xec, 0x21, 0x3a,
  0xf4, 0x1f, 0x32, 0xd9, 0xcd, 0x6d, 0x94, 0x6f, 0x57, 0xf3, 0x24, 0x11,
  0x66, 0x36, 0x5e, 0xf8, 0x31, 0x3c, 0xb7, 0xd3, 0xe8, 0xea, 0x16, 0xdc,
  0x9a, 0x23, 0xa4, 0x5d, 0xbf, 0x2f, 0x93, 0x0d, 0x43, 0x09, 0xc3, 0xee,
  0xe4, 0x62, 0xd2, 0xf4, 0xcb, 0x1b, 0x35, 0x58, 0xd2, 0xd9, 0x0a, 0xc3,
  0x24, 0x8a, 0x55, 0x3d, 0xc9, 0x6b, 0xb6, 0x45, 0xbd, 0x5b, 0xc2, 0xb0,
  0x51, 0xa2, 0x01, 0x9a, 0x09, 0x24, 0x2d, 0xbd, 0x22, 0x0f, 0x45, 0xfc,
  0x61, 0x6c, 0x49, 0x9a, 0x29, 0x63, 0xbd, 0x1b, 0xd6, 0x26, 0x27, 0xd9,
  0xb3, 0xa4, 0x3a, 0xb5, 0x66, 0xd2, 0x53, 0x5f, 0xe8, 0xb2, 0x68, 0x00,
  0x24, 0x6e, 0xd4, 0x3f, 0xa9, 0x90, 0x15, 0xdf, 0xdf, 0x50, 0x00, 0xa9,
  0xa4, 0x0c, 0xb1, 0x31, 0xcb, 0x92, 0xb6, 0x17, 0x57, 0x64, 0x34, 0x44,
  0x21, 0xdd, 0x94, 0x42, 0xc2, 0x0a, 0xfc, 0xb9, 0x06, 0x38, 0xfd, 0x6c,
  0x56, 0x8f, 0x11, 0xf8, 0x37, 0x99, 0x93, 0xdf, 0x88, 0xde, 0x91, 0xe9,
  0x71, 0xf6, 0x10, 0xdb, 0xd2, 0x29, 0xb6, 0xf7, 0x4a, 0x38, 0xc2, 0xd1,
  0xd7, 0x32, 0xed, 0x16, 0x6f, 0xce, 0x36, 0x74, 0x37, 0xaf, 0xee, 0x95,
  0x04, 0xb9, 0xdc, 0x98, 0x1c, 0xca, 0xd1, 0x19, 0x64, 0x56, 0xe0, 0x68,
  0x40, 0xff, 0x93, 0x59, 0x23, 0xab, 0x8c, 0x0a, 0xeb, 0x4b, 0xeb, 0x0b,
  0xfc, 0x07, 0x01, 0x99, 0xe3, 0xfb, 0x68, 0x67, 0xbf, 0x63, 0x5e, 0x36,
  0x5d, 0xbb, 0xf1, 0x45, 0xa1, 0xda, 0x0b, 0x47, 0x37, 0x6e, 0x24, 0x48,
  0x90, 0x1e, 0x4d, 0xc5, 0x44, 0x67, 0x1a, 0xbf, 0x58, 0xf1, 0x37, 0xf1,
  0x72, 0xee, 0xe1, 0x40, 0x32, 0x95, 0x66, 0x43, 0x0a, 0xbf, 0x1e, 0x19,
  0x0a, 0xf4, 0xf7, 0xf7, 0xab, 0x6b, 0xdb, 0x95, 0x32, 0x19, 0x48, 0xa4,
  0x57, 0x6e, 0x9c, 0x4e, 0xe6, 0xc3, 0x46, 0x50, 0xd2, 0xfc, 0xcb, 0x63,
  0xf4, 0x35, 0x52, 0x15, 0x75, 0xb1, 0xbc, 0x27, 0x09, 0x57, 0xd8, 0xd3,
  0xb9, 0xe1, 0xeb, 0x52, 0x60, 0x51, 0x4c, 0x90, 0x73, 0x8e, 0xa9, 0xd9,
  0x38, 0x33, 0x51, 0x48, 0x33, 0x88, 0x52, 0xb7, 0xf3, 0x69, 0x17, 0x43,
  0x47, 0xdb, 0x52, 0xbf, 0x63, 0xd2, 0x0a, 0x75, 0xa7, 0xb6, 0xbe, 0x33,
  0xa4, 0x0e, 0x05, 0x06, 0xda, 0x51, 0xa1, 0x73, 0xd1, 0x95, 0x5d, 0x20,
  0xc8, 0xb2, 0x70, 0x00, 0x32, 0xb9, 0xb0, 0xf0, 0x45, 0x64, 0x94, 0xe8,
  0xb6, 0x8e, 0xed, 0x30, 0x31, 0x34, 0x2e, 0xdd, 0x14, 0xc6, 0x2a, 0x61,
  0x33, 0x90, 0x8b, 0x5a, 0x15, 0x0c, 0xd9, 0xad, 0x21, 0x97, 0xbd, 0xb1,
  0x6a, 0xe7, 0x97, 0xca, 0x4f, 0x99, 0x0d, 0x4e, 0xbe, 0x21, 0x90, 0x28,
  0xaa, 0x6f, 0x1e, 0x53, 0x50, 0xda, 0xda, 0x6a, 0x74, 0xb6, 0xb9, 0x73,
  0xe2, 0xe2, 0xc8, 0xfa, 0xc7, 0x6c, 0x91, 0x1c, 0xdc, 0xee, 0xb4, 0x4f,
  0x3d, 0x23, 0xa3, 0xe1, 0xe9, 0x0f, 0x4d, 0xb2, 0x35, 0xd9, 0x8c, 0x3e,
  0xa4, 0x9b, 0x23, 0xe7, 0x69, 0xda, 0xa7, 0x6d, 0x43, 0x1e, 0x2d, 0x23,
  0xfb, 0x16, 0x35, 0x69, 0x9f, 0xd6, 0x59, 0x56, 0x31, 0x8b, 0x65, 0x15,
  0x17, 0x31, 0xbf, 0x1c, 0xb0, 0x9e, 0x15, 0xd1, 0x5c, 0xd2, 0x02, 0x6a,
  0x91, 0x45, 0x38, 0xba, 0xd3, 0xcc, 0x5d, 0x21, 0xcc, 0xa4, 0x09, 0x04,
  0xa1, 0x5a, 0xda, 0xc7, 0xc7, 0x1f, 0x2a, 0x67, 0x62, 0xb3, 0x42, 0x70,
  0x46, 0xfb, 0x5f, 0x5a, 0x3a, 0xea, 0xf9, 0x1d, 0xfa, 0x4e, 0x53, 0x44,
  0x00, 0xf9, 0x53, 0x63, 0x35, 0xd4, 0xfe, 0xb2, 0x75, 0xd4, 0x43, 0x32,
  0x0a, 0x9e, 0x8d, 0xf9, 0xb9, 0x8d, 0x73, 0x5f, 0xa9, 0xd7, 0x97, 0x56,
  0x16, 0xc4, 0x17, 0xdb, 0x49, 0x5f, 0xd9, 0xcf, 0x07, 0x3e, 0xa7, 0x0c,
  0x01, 0xd9, 0x10, 0x69, 0xb1, 0x64, 0x21, 0x32, 0x6c, 0xf6, 0xae, 0xb4,
  0xa5, 0xec, 0x70, 0x38, 0x56, 0xbf, 0xc6, 0x06, 0x2d, 0x6f, 0xc8, 0x1a,
  0xf9, 0x18, 0x00, 0xd5, 0x07, 0xd5, 0xdc, 0x8b, 0x03, 0xb7, 0x29, 0x3e,
  0xf1, 0x15, 0x06, 0x34, 0xae, 0x13, 0x6d, 0x94, 0x9a, 0x97, 0xb8, 0x6d,
  0x1b, 0x57, 0xaa, 0xd1, 0xcd, 0xd5, 0x71, 0xb0, 0x2a, 0x2e, 0x67, 0x39,
  0x50, 0x64, 0x9d, 0xc5, 0x2a, 0x08, 0xb6, 0x9b, 0x01, 0x87, 0xa0, 0x6f,
  0xc1, 0x8f, 0x43, 0xf2, 0x6c, 0xfd, 0x5e, 0x47, 0x66, 0xae, 0xe6, 0x30,
  0xed, 0xc1, 0xb5, 0x4e, 0xfa, 0x5b, 0x3b, 0x53, 0x63, 0x98, 0xcd, 0x92,
  0xaa, 0x98, 0x0e, 0x9b, 0xf7, 0xa7, 0xa1, 0xc4, 0x5f, 0x3c, 0xa7, 0xd8,
  0x41, 0xa4, 0xb5, 0x8f, 0xaa, 0xbd, 0xa7, 0x0f, 0x50, 0xe0, 0x68, 0xe6,
  0xed, 0x5b, 0x98, 0x63, 0x5b, 0x06, 0x42, 0xdd, 0x49, 0xcb, 0x27, 0xac,
  0xcb, 0xde, 0x17, 0xbd, 0xde, 0xfd, 0xa3, 0xfb, 0x63, 0xfa, 0x2e, 0x97,
  0xb1, 0xdb, 0xd4, 0x69, 0x6d, 0x6d, 0xdb, 0xba, 0x1c, 0x0b, 0xf9, 0xe3,
  0xf4, 0x06, 0x9f, 0x4c, 0xba, 0xc3, 0x68, 0x26, 0xbe, 0x9b, 0x95, 0x5c,
  0xcb, 0x15, 0x05, 0x15, 0x5a, 0x07, 0xd4, 0x5a, 0x1f, 0xf9, 0xc7, 0xad,
  0xd5, 0xcf, 0x46, 0xfa, 0x40, 0xd0, 0x1a, 0x30, 0xc2, 0xed, 0xe2, 0x40,
  0xa6, 0x33, 0x28, 0x8f, 0xee, 0x6e, 0xd9, 0x0b, 0x3a, 0xa3, 0x1f, 0x9e,
  0x9d, 0xf7, 0x93, 0xf2, 0x28, 0x54, 0x33, 0x5a, 0x54, 0x52, 0xe4, 0xd8,
  0xc1, 0x67, 0x90, 0xaa, 0x07, 0xf0, 0xef, 0x34, 0x2d, 0xd1, 0x6d, 0xf2,
  0xea, 0x44, 0xc9, 0x26, 0x1a, 0x2e, 0xf8, 0x0e, 0xc3, 0xe3, 0xf9, 0xb6,
  0x23, 0x6b, 0xd3, 0x69, 0xd9, 0xf1, 0x6e, 0x3e, 0x35, 0x69, 0x91, 0xb3,
  0x30, 0xf5, 0x00, 0xf7, 0x4b, 0x9c, 0x20, 0xe8, 0xa1, 0x3f, 0xfa, 0x00,
  0xb1, 0xf8, 0xde, 0x08, 0xea, 0x04, 0x94, 0xbf, 0xa1, 0xa0, 0xd4, 0x98,
  0x9e, 0xfe, 0xe8, 0x5c, 0xc9, 0x99, 0xee, 0xc7, 0x26, 0xa6, 0x28, 0x0a,
  0xa8, 0x1c, 0xe8, 0xad, 0x57, 0x2e, 0xbb, 0xc0, 0xa2, 0x90, 0x20, 0x4d,
  0xd7, 0xaa, 0x96, 0xf8, 0x37, 0xed, 0x08, 0xbb, 0xec, 0x42, 0xbe, 0x9e,
  0xfe, 0xff, 0x9a, 0x22, 0x2d, 0xd8, 0xc4, 0xb1, 0xc0, 0x48, 0x13, 0x00,
  0x04, 0x2a, 0x8a, 0x3a, 0xb1, 0x44, 0xaf, 0xee, 0x42, 0x67, 0x1e, 0x21,
  0x68, 0x3a, 0xdd, 0xab, 0x96, 0xba, 0xb3, 0x22, 0x3a, 0x8d, 0x41, 0xa5,
  0x95, 0x46, 0x61, 0xe9, 0x2e, 0x64, 0x16, 0x94, 0x4e, 0x68, 0xaa, 0x97,
  0xb7, 0xaa, 0x02, 0x1b, 0xce, 0x26, 0xe7, 0xe3, 0xfc, 0xf6, 0x53, 0x6d,
  0xe0, 0xa0, 0xae, 0xa0, 0xbd, 0x85, 0x92, 0xf1, 0xaf, 0xba, 0x68, 0xb1,
  0xee, 0x55, 0x96, 0xc5, 0x61, 0x88, 0xec, 0xbf, 0x00, 0x4b, 0x66, 0xbd,
  0xd5, 0xb6, 0xf5, 0x3a, 0xde, 0x5e, 0x2e, 0xbc, 0x1e, 0xab, 0xd3, 0x17,
  0x8a, 0x63, 0xb2, 0xe0, 0xea, 0x90, 0x51, 0xcf, 0x6d, 0x9c, 0x3b, 0xf6,
  0xcd, 0x86, 0xfd, 0xd5, 0xad, 0xcd, 0x18, 0x58, 0xdb, 0x4b, 0xc8, 0xdc,
  0x09, 0x01, 0x3e, 0xae, 0xc7, 0xf5, 0xa1, 0xeb, 0x9c, 0x6b, 0x1f, 0xd1,
  0x5c, 0xbc, 0xcd, 0x30, 0x50, 0xca, 0x0e, 0x5e, 0xaa, 0x17, 0x55, 0x3e,
  0x93, 0x4c, 0xcf, 0x13, 0x55, 0xf1, 0xcc, 0x06, 0x14, 0x38, 0x8b, 0x40,
  0x0b, 0x1d, 0xc0, 0xe8, 0x4a, 0xf2, 0xe4, 0xae, 0xba, 0xec, 0xd4, 0xef,
  0xb1, 0x6e, 0x60, 0x07, 0x6c, 0x1b, 0x5e, 0x87, 0xb9, 0xdf, 0x08, 0x1a,
  0x62, 0x27, 0xc8, 0x4f, 0x6b, 0xaf, 0xd3, 0x6c, 0xf8, 0x63, 0x57, 0xe0,
  0x4b, 0xf0, 0xa5, 0x40, 0x16, 0xce, 0x66, 0x18, 0xf0, 0x20, 0xde, 0x1b,
  0xaa, 0x21, 0xa5, 0x43, 0x13, 0xa4, 0x94, 0x23, 0xbf, 0xe7, 0xfe, 0xfe,
  0x33, 0xc9, 0xa6, 0x36, 0xa1, 0x96, 0xe2, 0xc9, 0xd6, 0x99, 0xea, 0xa4,
  0xd6, 0x94, 0x94, 0xdf, 0x95, 0xb6, 0x4f, 0xf1, 0x22, 0x9c, 0x8f, 0x08,
  0xe3, 0xae, 0x65, 0xb8, 0x52, 0x9f, 0x45, 0xb4, 0x33, 0x43, 0x1e, 0x27,
  0x15, 0xee, 0xff, 0x98, 0xbb, 0xf1, 0x6c, 0x0d, 0x5d, 0xe8, 0xb6, 0x20,
  0x1a, 0x5e, 0xa6, 0xb0, 0x0f, 0xe9, 0xa8, 0xd7, 0x3c, 0x94, 0x0e, 0x6c,
  0x18, 0xf3, 0xf6, 0xc0, 0x39, 0xd3, 0xf0, 0x47, 0x6e, 0xe1, 0x13, 0x03,
  0x2e, 0xc9, 0xf4, 0x03, 0x8f, 0xc6, 0x16, 0xde, 0x9b, 0x24, 0x8e, 0x9f,
  0xf1, 0x8d, 0x6b, 0xac, 0xca, 0xef, 0x09, 0xcf, 0x18, 0x5c, 0x65, 0xf1,
  0xde, 0x04, 0x3f, 0xab, 0xd0, 0xd4, 0xbf, 0xf4, 0x0d, 0xc4, 0x58, 0x3d,
  0xd0, 0x23, 0xf8, 0xcf, 0x4f, 0xfc, 0x42, 0x9c, 0xa3, 0xd8, 0x8f, 0x1c,
  0x4c, 0x5e, 0xfa, 0xd6, 0xc0, 0xec, 0x1f, 0x26, 0x91, 0xad, 0x60, 0x99,
  0xb3, 0x07, 0xc1, 0x9d, 0xd3, 0xff, 0xc4, 0x8f, 0x23, 0x3b, 0xb3, 0xe4,
  0xa2, 0xf9, 0xf4, 0x58, 0xef, 0x22, 0xa8, 0x1e, 0x54, 0x53, 0x2f, 0xc9,
  0xd1, 0xdc, 0xa0, 0xb1, 0x3a, 0xc3, 0xb8, 0xfa, 0x0e, 0x64, 0x27, 0x60,
  0x12, 0x72, 0xf1, 0xaa, 0x6b, 0x9b, 0x0e, 0x2b, 0xc1, 0x5f, 0x52, 0x3e,
  0x8c, 0x54, 0x2a, 0xb6, 0xc7, 0x68, 0x2e, 0xca, 0x3e, 0x94, 0x8f, 0xf9,
  0x38, 0x24, 0xa5, 0xb4, 0x33, 0xf6, 0x74, 0xe4, 0x5f, 0x67, 0x0c, 0x55,
  0xe4, 0xed, 0x3e, 0x09, 0x33, 0x1c, 0xc7, 0xe1, 0x94, 0x71, 0xab, 0x69,
  0xfb, 0x6a, 0x19, 0x45, 0xed, 0xcf, 0xc5, 0xbb, 0xc8, 0xe6, 0x2a, 0x39,
  0xf5, 0x47, 0x58, 0xa9, 0x4c, 0xe6, 0x59, 0x4f, 0x41, 0xad, 0x9c, 0xcd,
  0xf1, 0x51, 0x13, 0x3e, 0x9d, 0x23, 0x8b, 0xf6, 0xba, 0x57, 0xea, 0xef,
  0xf1, 0x39, 0xe7, 0xa3, 0xb8, 0x3d, 0xbc, 0xe3, 0x1d, 0x48, 0xd3, 0xe3,
  0x12, 0x01, 0xc3, 0x10, 0x43, 0x31, 0x1e, 0x65, 0x54, 0x6a, 0x89, 0x33,
  0xdb, 0xb3, 0xb6, 0xe2, 0xac, 0xa3, 0x6c, 0xfb, 0x85, 0x3a, 0xe6, 0x98,
  0xba, 0xf7, 0xeb, 0xaf, 0xec, 0x0a, 0x6b, 0xe9, 0xf8, 0x15, 0x4c, 0xde,
  0xe5, 0x92, 0x65, 0xae, 0xc1, 0x66, 0xb7, 0x34, 0xa0, 0xc1, 0x96, 0x68,
  0x2c, 0x41, 0xec, 0x6b, 0x59, 0xa8, 0xae, 0x44, 0x21, 0x04, 0x4b, 0x11,
  0x0d, 0x04, 0x44, 0xbb, 0xad, 0xb9, 0x4e, 0xcf, 0x92, 0x36, 0x60, 0xc6,
  0x6c, 0xde, 0xe7, 0xa1, 0xd1, 0xd0, 0x92, 0xe3, 0x89, 0x06, 0x30, 0xed,
  0x9e, 0x6a, 0x52, 0xb9, 0x4d, 0x62, 0x96, 0xe5, 0xa0, 0xf8, 0x38, 0x77,
  0x4b, 0xe3, 0xae, 0xf1, 0xdf, 0x45, 0xc2, 0x62, 0xb9, 0xa4, 0xae, 0xbe,
  0x69, 0xb7, 0xef, 0x4d, 0xed, 0xf5, 0x44, 0xa5, 0xc6, 0xe0, 0xfb, 0xaa,
  0x0b, 0x59, 0x65, 0x26, 0xa7, 0x25, 0xd7, 0xa2, 0xdb, 0xb1, 0x48, 0xab,
  0x56, 0x2e, 0x3e, 0x02, 0xcf, 0xa9, 0xb9, 0xf2, 0x31, 0xfa, 0xd9, 0x5b,
  0xa7, 0xbc, 0x94, 0x73, 0xba, 0x3f, 0x09, 0x43, 0x6e, 0xde, 0xf3, 0x40,
  0x29, 0x09, 0xcc, 0x9b, 0xbe, 0xf2, 0xc9, 0x73, 0x15, 0x45, 0x5b, 0x90,
  0x65, 0x37, 0x26, 0xc1, 0x67, 0xfd, 0xed, 0x9b, 0xdd, 0xc3, 0x97, 0x15,
  0x25, 0x37, 0x65, 0x48, 0xb0, 0x15, 0x75, 0x0e, 0x2c, 0xad, 0x1f, 0x23,
  0x0a, 0xf0, 0x9b, 0x63, 0xc9, 0xaf, 0xf1, 0x18, 0x7b, 0x2e, 0xfc, 0x6d,
  0x70, 0xeb, 0xb6, 0x9e, 0x71, 0x43, 0xbe, 0xb8, 0xa1, 0xe7, 0xb8, 0xb3,
  0x3e, 0xe7, 0x26, 0x53, 0x09, 0xe0, 0xc0, 0xcf, 0x50, 0xf3, 0x1b, 0xd9,
  0xb0, 0xc1, 0x79, 0x39, 0xa0, 0x11, 0x98, 0x9d, 0x21, 0x06, 0xe9, 0x70,
  0x9a, 0x79, 0xce, 0x2f, 0xdd, 0x27, 0xe0, 0x49, 0x0e, 0x3a, 0xdd, 0xfd,
  0x72, 0xf2, 0xc3, 0xde, 0x5f, 0xbe, 0xd5, 0xcd, 0x77, 0x37, 0xe0, 0xfa,
  0x23, 0x6a, 0x30, 0x92, 0x67, 0xfe, 0x48, 0x43, 0xbf, 0x40, 0x4b, 0x43,
  0x4b, 0x2f, 0xed, 0x14, 0x9f, 0xb0, 0x4d, 0x94, 0x36, 0x15, 0x43, 0xb1,
  0x95, 0x35, 0x24, 0xb4, 0x32, 0xb1, 0xf8, 0xe4, 0x97, 0x02, 0xde, 0x03,
  0xcf, 0xf5, 0x49, 0xbe, 0x56, 0xe1, 0x43, 0xd6, 0x18, 0x9f, 0xfb, 0xe8,
  0x6e, 0xc5, 0x15, 0xba, 0xec, 0xba, 0x91, 0x75, 0x05, 0x06, 0x2c, 0xe5,
  0x66, 0x06, 0xcd, 0x3f, 0x18, 0xa6, 0x68, 0x1e, 0xe5, 0x68, 0xf0, 0x98,
  0xfb, 0x4e, 0x30, 0x57, 0xa8, 0x98, 0xe2, 0x75, 0xf4, 0xbf, 0xd5, 0x53,
  0xbf, 0xed, 0x2a, 0xda, 0x4c, 0x72, 0x2a, 0x31, 0x41, 0xbc, 0x47, 0x47,
  0xdf, 0x20, 0xec, 0x4a, 0x47, 0xde, 0xf0, 0x4d, 0xb1, 0x4a, 0x9b, 0xcb,
  0x19, 0xad, 0xb6, 0x5c, 0xf7, 0xd0, 0xf1, 0xd3, 0x17, 0x2f, 0x29, 0x34,
  0x51, 0x0e, 0x9c, 0x1c, 0x41, 0x97, 0x47, 0xf2, 0x42, 0x9c, 0xf3, 0x9d,
  0x06, 0x1d, 0x9b, 0x2f, 0xcc, 0x8a, 0xba, 0x46, 0x68, 0xa3, 0xbf, 0x44,
  0x48, 0xb0, 0xdd, 0x4a, 0x3e, 0x8f, 0xb5, 0x43, 0xde, 0x33, 0xb0, 0x4d,
  0xc5, 0x37, 0xb9, 0x6c, 0x20, 0xf1, 0x25, 0x41, 0x8f, 0x2e, 0x31, 0x19,
  0x35, 0x11, 0xb5, 0xf0, 0x47, 0xd6, 0xb1, 0xb1, 0x90, 0x5d, 0xa1, 0x94,
  0xcd, 0xe8, 0x55, 0x17, 0x97, 0xc0, 0x13, 0x6e, 0xc5, 0x32, 0x63, 0xe9,
  0x18, 0x52, 0x0a, 0xd0, 0xfe, 0x18, 0x44, 0x6d, 0xfd, 0xc7, 0x13, 0xe1,
  0xac, 0x61, 0x18, 0xc5, 0x50, 0xfd, 0xa9, 0x1d, 0xc9, 0x93, 0x8c, 0x03,
  0x67, 0x3c, 0x2c, 0xf5, 0x4d, 0xd1, 0xdd, 0x9b, 0x92, 0xa0, 0xcd, 0x21,
  0x95, 0xa2, 0x00, 0xe6, 0xfb, 0x2f, 0x6c, 0x50, 0x6d, 0xf9, 0xec, 0x12,
  0x0c, 0x30, 0x24, 0xa7, 0x66, 0xa8, 0x5d, 0xb7, 0x44, 0xbd, 0xcf, 0x9e,
  0x42, 0x4c, 0x28, 0xc1, 0x93, 0x47, 0x73, 0x0f, 0x60, 0xd2, 0x6c, 0x41,
  0xcc, 0x1a, 0xc6, 0x8c, 0x9a, 0xaa, 0x96, 0xfc, 0x28, 0xa3, 0xc7, 0xb6,
  0x31, 0x87, 0xda, 0x00, 0x31, 0x9f, 0xcc, 0xcc, 0x50, 0x05, 0xd5, 0x05,
  0xdf, 0x24, 0x17, 0xfd, 0x6a, 0x6f, 0x56, 0xe0, 0x1f, 0xd8, 0x59, 0xb3,
  0x54, 0x67, 0xe4, 0x6e, 0x93, 0x8b, 0x2f, 0x13, 0x27, 0xf5, 0x5b, 0xb9,
  0xe7, 0x96, 0x03, 0x64, 0xef, 0xc1, 0xf4, 0x98, 0xaf, 0xa0, 0xc9, 0xd4,
  0x1b, 0xc2, 0x48, 0xff, 0x2e, 0x13, 0x8b, 0x2d, 0x32, 0x5e, 0x58, 0xa9,
  0x1d, 0xb8, 0x4b, 0xb9, 0x6b, 0x10, 0xd6, 0xa2, 0x1c, 0xf9, 0x9f, 0x9e,
  0x06, 0xa4, 0x45, 0xcc, 0xf1, 0x44, 0x9d, 0x8d, 0x50, 0xb0, 0x5b, 0x99,
  0x9f, 0xe5, 0xe8, 0x70, 0x5b, 0xdb, 0x4e, 0xef, 0xcf, 0xa4, 0xcd, 0xc1,
  0x62, 0xdb, 0x23, 0xa3, 0x19, 0x42, 0x1a, 0x5e, 0x1f, 0x40, 0x8c, 0xd5,
  0x1f, 0x4d, 0x3c, 0x33, 0x9e, 0xe0, 0x15, 0x68, 0x9f, 0x43, 0x99, 0x30,
  0xab, 0x06, 0xe5, 0x63, 0xb1, 0xe4, 0xb7, 0xb9, 0xde, 0x2f, 0xa8, 0xcf,
  0x8e, 0xd2, 0x3a, 0x0c, 0xfd, 0x26, 0x58, 0x57, 0xf4, 0xd7, 0x5c, 0x23,
  0xb2, 0x21, 0x69, 0x59, 0xae, 0xa6, 0x48, 0x6a, 0x4f, 0x68, 0xfa, 0x47,
  0xaf, 0x24, 0x37, 0xfd, 0x9e, 0x2a, 0x4c, 0x71, 0xbf, 0xf2, 0x5b, 0xf0,
  0x32, 0x9d, 0x34, 0xf8, 0x00, 0x2f, 0xcb, 0xba, 0x5d, 0xe5, 0x35, 0x6a,
  0x5b, 0x52, 0x59, 0x2c, 0x29, 0x4d, 0x2a, 0x2a, 0x59, 0x9a, 0x8e, 0xad,
  0xe7, 0x34, 0x9e, 0xdc, 0xea, 0xaa, 0xe6, 0x45, 0x59, 0x90, 0x8c, 0x2c,
  0x43, 0xdc, 0x17, 0x38, 0x28, 0x3d, 0xba, 0x69, 0x05, 0x23, 0x8b, 0xb1,
  0xd9, 0x1b, 0xaf, 0x11, 0xe1, 0xb6, 0x0a, 0x08, 0x73, 0xcf, 0x9d, 0x9a,
  0xab, 0xba, 0x3a, 0x8b, 0x0f, 0xad, 0x46, 0x95, 0x5b, 0x08, 0x06, 0x43,
  0xd4, 0x58, 0xe2, 0xca, 0x41, 0x3a, 0x1a, 0x6d, 0x31, 0xc1, 0xbe, 0xeb,
  0xc7, 0xdd, 0xa3, 0x50, 0xc9, 0x6a, 0x02, 0x03, 0x64, 0xcb, 0xd9, 0x43,
  0xd6, 0x4c, 0x1e, 0x98, 0x72, 0x91, 0xd9, 0xbc, 0x94, 0x08, 0x8e, 0x2f,
  0xe4, 0x11, 0x69, 0x99, 0x8d, 0x4a, 0xd3, 0xce, 0x20, 0x67, 0xce, 0xb7,
  0x5c, 0xb3, 0xa7, 0x05, 0x6d, 0x68, 0x69, 0xda, 0xd3, 0xf2, 0x26, 0x18,
  0xa8, 0x2b, 0xb6, 0x14, 0xbd, 0x13, 0xc8, 0x09, 0x9e, 0x60, 0x15, 0x53,
  0xea, 0xcd, 0xaf, 0x71, 0x91, 0xd6, 0xa0, 0x1a, 0x65, 0x00, 0xf4, 0x63,
  0x2b, 0xc8, 0xdd, 0x15, 0x4e, 0x9b, 0xbd, 0x4a, 0xdd, 0xf8, 0xe7, 0x33,
  0x66, 0x65, 0x71, 0x08, 0x1e, 0xb8, 0xaf, 0xe0, 0x8f, 0x12, 0x60, 0x32,
  0x5a, 0x60, 0xe1, 0x8c, 0x67, 0xce, 0xf1, 0x00, 0xd0, 0xb9, 0x23, 0xf6,
  0x4e, 0x0a, 0xa9, 0xec, 0xfd, 0x71, 0x64, 0x08, 0x13, 0xa0, 0xa6, 0x49,
  0x63, 0x66, 0x3c, 0x1b, 0xcc, 0x14, 0xc2, 0x42, 0xe7, 0xa2, 0x4b, 0x53,
  0x12, 0xdc, 0x8f, 0xbb, 0xc9, 0x19, 0x6c, 0x07, 0x39, 0xbe, 0x5e, 0x9c,
  0x4e, 0xe0, 0x23, 0x17, 0x25, 0xc3, 0xe5, 0x69, 0xd7, 0x2d, 0xb2, 0x04,
  0x91, 0x6f, 0xbc, 0xca, 0xfb, 0xd9, 0x42, 0x51, 0xc0, 0xc7, 0x8f, 0xfa,
  0x5d, 0x6c, 0xcf, 0x4a, 0x07, 0x9c, 0x46, 0x0a, 0x4b, 0xc7, 0xdc, 0xa0,
  0x61, 0xf0, 0xb3, 0x38, 0x21, 0xd0, 0xb3, 0xf0, 0x4b, 0xf7, 0x41, 0xa1,
  0xb1, 0x47, 0x72, 0x1e, 0x2d, 0x9c, 0x97, 0x06, 0x21, 0x61, 0x20, 0x97,
  0x40, 0x33, 0x29, 0x4c, 0xfd, 0xbf, 0xd7, 0x48, 0xb8, 0x4f, 0xe3, 0x8f,
  0xfc, 0x9e, 0xa2, 0x58, 0x1c, 0x3a, 0x91, 0x5b, 0xd8, 0xe6, 0xdd, 0xa6,
  0x2b, 0x93, 0x58, 0xcd, 0xd9, 0x56, 0xbd, 0x2b, 0xfe, 0x0f, 0xd0, 0x0e,
  0x2d, 0xb0, 0x33, 0x0b, 0x5b, 0x6b, 0xca, 0xfb, 0x93, 0xe2, 0x16, 0xf4,
  0x2d, 0x27, 0x56, 0x13, 0x56, 0x0f, 0xf4, 0x09, 0x06, 0x22, 0xf6, 0xbe,
  0x15, 0xb9, 0x98, 0xdc, 0x36, 0x0e, 0x66, 0xe0, 0x18, 0x31, 0x38, 0xa8,
  0x78, 0x5d, 0xe9, 0xc2, 0xee, 0xd7, 0x33, 0xee, 0xe8, 0x22, 0xf9, 0x04,
  0x73, 0xa9, 0xeb, 0x25, 0x23, 0x78, 0x37, 0xf1, 0x55, 0xca, 0xe1, 0x51,
  0x13, 0xf3, 0xa7, 0xec, 0xd8, 0x29, 0x47, 0xf3, 0x64, 0xdb, 0x5c, 0x68,
  0xf0, 0x3b, 0x4a, 0x07, 0x44, 0xc5, 0xab, 0xec, 0xfd, 0x26, 0x24, 0xcf,
  0xfc, 0xd2, 0x38, 0x6c, 0x04, 0xc3, 0x9d, 0x0a, 0x1a, 0xd3, 0x3e, 0x76,
  0x1d, 0xe4, 0x24, 0x0a, 0x11, 0xf7, 0xf3, 0xf3, 0xf2, 0x71, 0x2f, 0x39,
  0xee, 0xfd, 0xea, 0x1e, 0x25, 0x1f, 0xb7, 0xe1, 0xad, 0xda, 0x75, 0xf2,
  0xc6, 0xd7, 0xe3, 0xf7, 0xa3, 0xa0, 0xbd, 0x60, 0xdf, 0x52, 0x1c, 0x50,
  0xf1, 0x79, 0x00, 0xeb, 0xd2, 0xb6, 0x99, 0x6f, 0xd8, 0x4d, 0x56, 0xef,
  0xd7, 0xd7, 0x2f, 0x3b, 0xb3, 0xca, 0x6e, 0x2b, 0xd1, 0x4c, 0x37, 0x62,
  0x9e, 0x1a, 0x2d, 0xed, 0xdb, 0x36, 0x03, 0x3a, 0xc5, 0xe9, 0xdb, 0xce,
  0x28, 0xd0, 0x1d, 0xbd, 0x52, 0x91, 0x92, 0x95, 0x65, 0xa0, 0x5f, 0x20,
  0xa1, 0x02, 0xef, 0x46, 0x10, 0xf9, 0x3b, 0x9c, 0x3c, 0x6e, 0xdb, 0x74,
  0xf9, 0x97, 0xc4, 0x66, 0xfa, 0x29, 0x09, 0xf7, 0xce, 0x21, 0x0a, 0x43,
  0xcf, 0xd2, 0xac, 0x95, 0x47, 0xba, 0x02, 0x6f, 0xf3, 0xa2, 0x22, 0xa1,
  0x74, 0xa4, 0xee, 0xef, 0x25, 0x8f, 0x46, 0x3b, 0x1e, 0x08, 0xc5, 0x34,
  0xa7, 0x1d, 0xd5, 0xf1, 0xb8, 0x52, 0xd5, 0x02, 0x68, 0x58, 0x9e, 0x30,
  0x3e, 0x4d, 0x03, 0xa7, 0xcb, 0x39, 0xae, 0x64, 0x9c, 0xd3, 0x6e, 0x60,
  0xe5, 0x71, 0x38, 0xb4, 0x55, 0xaf, 0x02, 0x6b, 0x36, 0xcf, 0xa6, 0xe6,
  0xdb, 0xc5, 0xc5, 0xef, 0xcf, 0xa8, 0xad, 0xd6, 0x48, 0x6e, 0x42, 0xd8,
  0xf2, 0xde, 0xed, 0x28, 0xd2, 0x0a, 0x29, 0x38, 0x4d, 0xbd, 0xfe, 0xdb,
  0x8e, 0x56, 0x0d, 0x8e, 0xda, 0xa6, 0x13, 0x3d, 0x1d, 0xf3, 0xdd, 0x74,
  0xff, 0xd6, 0x61, 0xfe, 0x8e, 0xa2, 0xc7, 0x38, 0x12, 0x96, 0xfc, 0x1d,
  0x58, 0xd3, 0xa5, 0xd7, 0xae, 0x70, 0xd8, 0xa1, 0x97, 0x31, 0x28, 0x69,
  0xb1, 0x2f, 0xae, 0xf0, 0xa0, 0xa3, 0x0a, 0xd6, 0xfa, 0xcb, 0xa4, 0x61,
  0x12, 0x50, 0xe6, 0x2d, 0x41, 0x6a, 0x91, 0x2c, 0x2e, 0x35, 0xa0, 0xec,
  0xf9, 0x32, 0x39, 0xb2, 0x6a, 0x6d, 0x44, 0xf5, 0x48, 0x96, 0x68, 0x2a,
  0xdf, 0x21, 0xd7, 0x17, 0x1a, 0x60, 0x0c, 0x45, 0x70, 0xe7, 0x5a, 0xda,
  0x55, 0x98, 0x67, 0xea, 0x90, 0x99, 0xd7, 0xe5, 0x63, 0xdd, 0x91, 0x9b,
  0x43, 0x18, 0xc6, 0xee, 0xa5, 0x63, 0x6a, 0xaa, 0xaa, 0x67, 0x34, 0xfc,
  0xf7, 0x5c, 0x5d, 0xcf, 0x6b, 0x22, 0xae, 0x2a, 0x11, 0xc7, 0xe0, 0xec,
  0x98, 0x2b, 0x92, 0xea, 0x36, 0xf4, 0xd7, 0x10, 0x52, 0xc9, 0x63, 0x50,
  0x2e, 0xdf, 0xcb, 0x16, 0x65, 0xf7, 0xaf, 0x2f, 0x1a, 0xeb, 0x15, 0xfe,
  0xb2, 0x0e, 0x50, 0x3e, 0xaa, 0x9d, 0xdf, 0x39, 0x1d, 0x56, 0x63, 0x5e,
  0x96, 0x57, 0xd0, 0x48, 0x8e, 0x98, 0x8c, 0x4a, 0x24, 0x6e, 0xa1, 0x9b,
  0xaa, 0xa3, 0x2c, 0xb0, 0x5f, 0xc9, 0xf1, 0x41, 0x64, 0x5f, 0x17, 0xd7,
  0x39, 0xa2, 0x77, 0xb5, 0x3a, 0xef, 0x17, 0xd5, 0x47, 0x13, 0xaf, 0x08,
  0x27, 0x19, 0xa8, 0x60, 0xd5, 0x48, 0x8e, 0xfb, 0x61, 0x9a, 0x23, 0xcd,
  0xcd, 0xa3, 0x1c, 0x1f, 0x17, 0x0d, 0x6a, 0x16, 0x5a, 0x99, 0xc9, 0x7e,
  0x39, 0x18, 0x2d, 0xa6, 0x8d, 0x3b, 0xd2, 0xb6, 0xd2, 0xd6, 0x02, 0xc5,
  0x54, 0x08, 0x5a, 0x63, 0xb7, 0xc8, 0xa0, 0x3f, 0xae, 0xdd, 0xac, 0x68,
  0x29, 0x62, 0xd1, 0x33, 0xdb, 0x61, 0x0f, 0x62, 0x45, 0x3e, 0x08, 0x5b,
  0x11, 0x4c, 0xa0, 0x47, 0x63, 0xc0, 0x16, 0x73, 0xbe, 0x0e, 0x32, 0xc6,
  0x15, 0xf6, 0x49, 0x0d, 0x51, 0x5b, 0x3f, 0x33, 0x51, 0xe4, 0xfd, 0xc1,
  0x25, 0x3e, 0x15, 0xe8, 0x1b, 0x57, 0x9d, 0xca, 0x64, 0xb1, 0x96, 0x1f,
  0x0c, 0x5f, 0x57, 0xd1, 0xdc, 0xad, 0x52, 0x20, 0xd8, 0xbc, 0xd1, 0x29,
  0x65, 0xc4, 0x64, 0x36, 0xc0, 0xea, 0xe7, 0xce, 0x46, 0xe4, 0x0b, 0xd1,
  0x2b, 0x1b, 0x65, 0xaa, 0x9a, 0x64, 0xa3, 0xb8, 0x53, 0x2b, 0x3e, 0xd2,
  0x59, 0x01, 0x2f, 0x8b, 0xfd, 0x46, 0xf2, 0x15, 0xbd, 0xa7, 0x14, 0xd5,
  0xbc, 0x5b, 0xc2, 0xa5, 0xd4, 0x22, 0x25, 0xb7, 0x6c, 0x36, 0x17, 0x0b,
  0xe7, 0x5c, 0x62, 0x57, 0xa5, 0x3c, 0xa3, 0x58, 0xdf, 0xc9, 0x2d, 0xb3,
  0xc7, 0xb8, 0xac, 0xe6, 0x57, 0x18, 0x99, 0xd4, 0x67, 0x4b, 0x1e, 0xe3,
  0x9c, 0x54, 0x51, 0x16, 0x8c, 0x2c, 0x59, 0x67, 0x90, 0xbd, 0xaa, 0x73,
  0x67, 0x3a, 0xc2, 0x48, 0xcb, 0x4b, 0xfa, 0x04, 0xf2, 0xeb, 0xe8, 0xb0,
  0xc4, 0x53, 0xdb, 0xa4, 0x69, 0x57, 0xb7, 0xbd, 0xbb, 0x23, 0xc9, 0x8b,
  0x6f, 0x5c, 0xcd, 0xb6, 0xd3, 0xfd, 0xf6, 0xb6, 0x61, 0x96, 0xed, 0x74,
  0xbb, 0xb5, 0x96, 0x34, 0x74, 0x11, 0xad, 0x51, 0xb3, 0x96, 0x18, 0x11,
  0x8c, 0xb0, 0xd6, 0xcf, 0x46, 0x94, 0xe9, 0xa6, 0xe9, 0x35, 0xe2, 0xbb,
  0xb5, 0x3d, 0x64, 0x23, 0x07, 0x4e, 0x6a, 0x01, 0x68, 0xed, 0x8e, 0x30,
  0x0b, 0x4d, 0x28, 0xeb, 0x37, 0x9f, 0xc8, 0x50, 0x3d, 0xf8, 0xae, 0xae,
  0xa4, 0x66, 0x4d, 0x15, 0xcb, 0x12, 0x4b, 0x0d, 0xfd, 0xb3, 0xaa, 0xcc,
  0x95, 0x58, 0xde, 0x10, 0xd7, 0x92, 0xb2, 0x2a, 0xcc, 0x57, 0xfb, 0x62,
  0x46, 0xf5, 0xc2, 0x39, 0xc4, 0x10, 0xf2, 0xc0, 0xa5, 0x98, 0xcb, 0x2e,
  0xd8, 0x02, 0xeb, 0x9e, 0x3c, 0x36, 0x95, 0x8e, 0xda, 0xb5, 0x0b, 0x0c,
  0x4d, 0xae, 0x9d, 0xf5, 0xdc, 0x3b, 0xb3, 0x63, 0xbf, 0xa5, 0x66, 0xea,
  0x29, 0x90, 0xe6, 0x04, 0xc5, 0x4a, 0x68, 0xb9, 0x46, 0x48, 0x40, 0x95,
  0x3c, 0xa6, 0xda, 0xea, 0x8f, 0xb1, 0x23, 0x34, 0x22, 0xac, 0x59, 0xfc,
  0xa1, 0xe6, 0xb9, 0x11, 0xe2, 0xa7, 0x03, 0xec, 0x68, 0x8d, 0x97, 0x2d,
  0x42, 0xbc, 0xc1, 0xfe, 0x26, 0xf0, 0x26, 0x19, 0x56, 0xcf, 0x37, 0x1a,
  0x03, 0x4d, 0xe2, 0xb7, 0x68, 0x8f, 0xd2, 0x29, 0x4d, 0xbe, 0xd6, 0xc3,
  0xbe, 0xc5, 0xd8, 0x9b, 0xda, 0xa7, 0xa3, 0x39, 0xa5, 0xbc, 0x6f, 0x72,
  0x07, 0xec, 0x8f, 0x34, 0xb7, 0x6f, 0x3a, 0xb3, 0x58, 0x58, 0x4c, 0x5b,
  0x15, 0x59, 0xd1, 0x12, 0x51, 0x71, 0x3f, 0x1e, 0xbe, 0xe3, 0x03, 0xf1,
  0x07, 0xa1, 0x1b, 0xb7, 0xd3, 0x25, 0xf9, 0x99, 0x37, 0x37, 0x59, 0x54,
  0xdd, 0x18, 0x97, 0x60, 0xc7, 0x5f, 0xff, 0xc9, 0xc8, 0x4f, 0x1f, 0x45,
  0xb9, 0x72, 0x19, 0x55, 0x2e, 0x1e, 0x44, 0xab, 0xe1, 0xde, 0xb6, 0x5d,
  0x08, 0x36, 0x2b, 0x26, 0xd0, 0x53, 0xbf, 0x55, 0x41, 0xed, 0x02, 0x0b,
  0xa4, 0x1c, 0x2e, 0x27, 0x64, 0x1d, 0x9c, 0xbb, 0xab, 0xfe, 0x54, 0x35,
  0x4a, 0x73, 0xb0, 0xe9, 0x5d, 0xce, 0x5c, 0xf3, 0x73, 0xc6, 0xfc, 0xc5,
  0x57, 0xfb, 0x60, 0x36, 0xf5, 0x39, 0x58, 0x18, 0xbe, 0x39, 0xb8, 0x05,
  0x29, 0x0a, 0x25, 0x07, 0x48, 0x91, 0xb8, 0x2a, 0x1f, 0xbe, 0xc3, 0x19,
  0x13, 0x60, 0xe6, 0x07, 0xcb, 0x9c, 0xf0, 0x6d, 0xda, 0x22, 0xd3, 0x71,
  0x57, 0x47, 0xce, 0xbf, 0xb5, 0xdd, 0x11, 0x35, 0x65, 0xd1, 0x3b, 0xe6,
  0x9a, 0xc4, 0x32, 0x1b, 0xd4, 0x05, 0xbf, 0xbf, 0xa2, 0xf5, 0xda, 0xae,
  0x40, 0x09, 0xeb, 0xe1, 0x03, 0x56, 0x72, 0x3a, 0x70, 0x6c, 0x77, 0x9b,
  0xaa, 0xeb, 0x10, 0x9d, 0x7c, 0x01, 0x95, 0x0d, 0x0c, 0x04, 0xa2, 0x50,
  0x50, 0xec, 0x59, 0x66, 0x44, 0xdf, 0xf8, 0xc4, 0x13, 0xea, 0xf4, 0xed,
  0xd3, 0x1c, 0x5e, 0xc8, 0x19, 0xf6, 0xc8, 0x32, 0xc6, 0xe6, 0x0b, 0xc4,
  0xac, 0x57, 0x0d, 0xcf, 0xda, 0xa5, 0xa7, 0x06, 0xbe, 0x13, 0xb9, 0x32,
  0x12, 0x4b, 0x1a, 0x07, 0xd0, 0x75, 0xed, 0xf8, 0xe4, 0xe1, 0x0e, 0x28,
  0x41, 0xf5, 0xa9, 0xc8, 0xcf, 0x45, 0x95, 0x5b, 0x36, 0xc3, 0xbd, 0xe8,
  0xc1, 0x36, 0x07, 0x28, 0xfd, 0x56, 0xb7, 0xa3, 0xe0, 0x1e, 0xd3, 0xe1,
  0x96, 0x0b, 0x3e, 0xd1, 0x26, 0x34, 0x6d, 0xff, 0x9a, 0x5b, 0x46, 0x1f,
  0xd6, 0x4e, 0x59, 0x28, 0x25, 0x5f, 0xed, 0x1b, 0xbe, 0xf0, 0x9f, 0x3a,
  0xfb, 0x6c, 0x01, 0xbe, 0xa0, 0xb0, 0xeb, 0xee, 0x05, 0x02, 0x42, 0x65,
  0x8d, 0x57, 0x3b, 0x9f, 0xb1, 0xcd, 0xb6, 0x4e, 0x30, 0x89, 0xa6, 0xe2,
  0x9c, 0x40, 0x31, 0x58, 0x38, 0xbb, 0x2e, 0x0f, 0x14, 0xc2, 0x1e, 0x8f,
  0x48, 0xa8, 0xc6, 0x46, 0x09, 0x63, 0x66, 0x0c, 0xbe, 0x9f, 0x9b, 0xdb,
  0xea, 0xfa, 0xdb, 0x42, 0x4d, 0xb2, 0xbd, 0x99, 0x3b, 0x6c, 0x88, 0x92,
  0x22, 0x12, 0x9a, 0x23, 0x33, 0xd7, 0xfb, 0xf2, 0x11, 0x27, 0xda, 0x50,
  0xe5, 0x42, 0x31, 0x96, 0xfd, 0xd6, 0x4c, 0x3d, 0x57, 0xe9, 0x8b, 0x4d,
  0x21, 0x32, 0x55, 0xc1, 0xbc, 0xc6, 0x5c, 0xeb, 0xc6, 0x64, 0x47, 0xe1,
  0x93, 0x3b, 0xab, 0x97, 0xb9, 0x0e, 0x4d, 0x11, 0x2d, 0x2c, 0x6f, 0x5f,
  0xdb, 0xd7, 0x26, 0x5b, 0x4d, 0x23, 0x00, 0xad, 0xc3, 0xe1, 0xa1, 0x4f,
  0x71, 0x4f, 0xdb, 0xcf, 0x42, 0x99, 0xe4, 0xc2, 0xb6, 0x9b, 0xc1, 0xa8,
  0x2a, 0x60, 0x07, 0xf5, 0x9c, 0xfa, 0xc7, 0xe4, 0xb0, 0x22, 0xc4, 0x50,
  0x96, 0x29, 0xe2, 0x2e, 0xf9, 0xdf, 0x6e, 0x89, 0x89, 0x55, 0xbb, 0x17,
  0x1a, 0x07, 0xfe, 0xf2, 0xbd, 0x13, 0xad, 0xf3, 0xb9, 0x9e, 0x5f, 0x20,
  0xde, 0x01, 0x4e, 0x9c, 0xf9, 0xf2, 0x67, 0xef, 0x41, 0x5f, 0x5f, 0xe8,
  0x3c, 0xe5, 0xfc, 0x4f, 0xb9, 0x40, 0xd7, 0xc8, 0x94, 0xfa, 0xf4, 0xa8,
  0x6b, 0x4f, 0xe5, 0x6a, 0xe4, 0x42, 0xe0, 0xb6, 0x36, 0xe1, 0xe3, 0x4d,
  0xbb, 0xea, 0x47, 0x4a, 0x07, 0x44, 0xb0, 0x42, 0x9c, 0xec, 0xfa, 0x45,
  0xa4, 0x50, 0x7c, 0x02, 0x58, 0xc2, 0x9c, 0x9f, 0x79, 0x95, 0xbe, 0xa9,
  0xc8, 0x7f, 0xd2, 0xf3, 0x1b, 0xbe, 0xb4, 0x19, 0x56, 0x3c, 0x2c, 0xf8,
  0xb5, 0x1c, 0x47, 0xc9, 0xd4, 0x59, 0x63, 0x11, 0x38, 0x2a, 0x26, 0x49,
  0xcd, 0xa6, 0xac, 0x34, 0x05, 0x76, 0x75, 0x08, 0x57, 0x50, 0x08, 0x25,
  0xc9, 0xae, 0x41, 0x43, 0x0e, 0xef, 0x6d, 0xce, 0xa3, 0x06, 0x95, 0x5b,
  0x75, 0x1b, 0xa0, 0x11, 0x3d, 0xbb, 0x2c, 0x7d, 0xdd, 0x46, 0xc4, 0x7d,
  0xa9, 0x2f, 0x3b, 0x56, 0xf3, 0x6a, 0x46, 0x1f, 0x1c, 0x2e, 0xf2, 0x5e,
  0x11, 0x7e, 0x97, 0x72, 0x68, 0xe3, 0x07, 0x14, 0x55, 0x96, 0x42, 0xe3,
  0x4b, 0x02, 0xea, 0xe6, 0xf4, 0xd2, 0xb0, 0x24, 0xf5, 0xb6, 0x5f, 0xf5,
  0x9b, 0xca, 0x9a, 0x10, 0x14, 0x3a, 0x65, 0xd3, 0xce, 0x96, 0x7e, 0x06,
  0xc9, 0x60, 0x3b, 0xfb, 0x7c, 0xb2, 0x4e, 0xe1, 0x6f, 0xcd, 0xae, 0xaa,
  0xcd, 0xd0, 0x09, 0x1e, 0x1b, 0x11, 0xd6, 0x16, 0xde, 0x00, 0xab, 0xdf,
  0x03, 0x71, 0x48, 0x5a, 0xf3, 0xe1, 0xef, 0x44, 0x52, 0x5d, 0xfd, 0x98,
  0xae, 0x43, 0x66, 0xde, 0x64, 0xce, 0xfe, 0x22, 0x6b, 0x3f, 0x78, 0xa1,
  0xf6, 0x9f, 0x03, 0x06, 0x9b, 0x4f, 0x2f, 0x69, 0x41, 0x41, 0xc5, 0x69,
  0xb7, 0x54, 0x75, 0x15, 0xdb, 0xfe, 0xd7, 0xd6, 0x1e, 0x99, 0x68, 0x58,
  0xd1, 0xd5, 0x33, 0xe1, 0x9e, 0xc3, 0xec, 0x67, 0x0a, 0x6f, 0xf7, 0x1b,
  0x95, 0x38, 0xd6, 0xea, 0xc3, 0xc8, 0x72, 0xd5, 0xc6, 0xb6, 0x2f, 0xce,
  0x9b, 0x44, 0x60, 0x09, 0x36, 0x60, 0xfe, 0xf0, 0x5c, 0x91, 0xb3, 0xdc,
  0xac, 0x01, 0xd3, 0x61, 0xee, 0xb6, 0xc4, 0x46, 0x06, 0xe9, 0xb7, 0x69,
  0xae, 0x8f, 0xf4, 0xeb, 0xdc, 0x6d, 0xd2, 0x4c, 0xc4, 0x9d, 0x48, 0x6e,
  0x48, 0xc2, 0xa3, 0x37, 0x23, 0x74, 0xbf, 0xbd, 0x21, 0x50, 0xcb, 0x3f,
  0x14, 0xd3, 0x42, 0x8e, 0x92, 0xa1, 0xe6, 0x91, 0xac, 0xe9, 0x33, 0xc5,
  0x8c, 0x5c, 0x33, 0xb9, 0x03, 0xe1, 0x1e, 0x31, 0xb1, 0xfc, 0x35, 0xb4,
  0xa9, 0x05, 0x60, 0x9b, 0x64, 0x04, 0xdd, 0x68, 0x6f, 0xba, 0x98, 0x62,
  0x9a, 0xe2, 0xdf, 0xa0, 0xc1, 0x19, 0x1d, 0x5e, 0x52, 0x1d, 0xc1, 0xdf,
  0x56, 0xb2, 0x98, 0x6b, 0xfa, 0x5d, 0xb2, 0xef, 0xc7, 0x71, 0x40, 0xce,
  0x20, 0x5f, 0xa5, 0x0a, 0x9d, 0xb0, 0x1b, 0xd8, 0x5e, 0x00, 0x5a, 0xe0,
  0x3a, 0x33, 0x8c, 0x03, 0x33, 0x62, 0xdb, 0x21, 0xa9, 0x48, 0x98, 0x49,
  0xfc, 0x04, 0x40, 0xe0, 0xd4, 0xb1, 0x98, 0x8b, 0x49, 0xb9, 0xdf, 0x5a,
  0xc8, 0x4d, 0x5e, 0x44, 0x08, 0xf9, 0xd3, 0xb2, 0x1b, 0xfb, 0x92, 0x6a,
  0xc2, 0x55, 0xd7, 0xe6, 0x55, 0x92, 0x47, 0x6d, 0x1e, 0x92, 0xba, 0xd3,
  0x9b, 0xf4, 0x39, 0x3b, 0x15, 0x57, 0xf9, 0xad, 0x13, 0x15, 0x62, 0x6f,
  0xe5, 0xe2, 0x6f, 0x8c, 0xe0, 0x63, 0x60, 0xe3, 0xc4, 0x37, 0xcf, 0xac,
  0x55, 0xbe, 0x90, 0x9d, 0x69, 0x18, 0x1b, 0x65, 0xe2, 0xd9, 0x05, 0x1e,
  0xff, 0x03, 0xd4, 0xe6, 0xc2, 0x2a, 0xa4, 0xbb, 0xe3, 0x90, 0xd3, 0x4d,
  0x55, 0xa7, 0xd5, 0xed, 0x6e, 0x98, 0x08, 0x4f, 0x01, 0xe4, 0xb0, 0x6d,
  0x00, 0xef, 0x2d, 0x97, 0xf3, 0x9a, 0xb9, 0x9e, 0x1f, 0xee, 0xa8, 0x37,
  0x6e, 0xdd, 0x16, 0x9c, 0x94, 0xab, 0xc8, 0x5b, 0x9a, 0xc1, 0xa8, 0x6b,
  0x5a, 0x13, 0xf6, 0x76, 0xb5, 0x40, 0x95, 0x51, 0x06, 0x68, 0x2b, 0xe5,
  0x8f, 0x0d, 0x5c, 0x3f, 0xc2, 0x19, 0x2d, 0xb2, 0x3b, 0x1a, 0x98, 0x23,
  0xed, 0xa7, 0xa0, 0xe1, 0xa0, 0x73, 0xd8, 0x19, 0xd5, 0x9e, 0x48, 0xe1,
  0x2d, 0xb9, 0x71, 0xb7, 0xcd, 0x93, 0x0c, 0xae, 0x4c, 0x5c, 0x72, 0xbb,
  0x61, 0xab, 0x4a, 0xa5, 0xc5, 0xae, 0xae, 0x2d, 0xdd, 0x51, 0x72, 0x39,
  0x11, 0x65, 0x38, 0x4e, 0x00, 0x5f, 0x5a, 0x11, 0x91, 0x54, 0x93, 0xd9,
  0xa8, 0x44, 0x9b, 0xc6, 0x9d, 0xa0, 0xa9, 0x9c, 0x34, 0xa8, 0xa8, 0xd7,
  0xfa, 0xc9, 0xd8, 0xab, 0xda, 0xa0, 0x3f, 0x44, 0x57, 0x45, 0x1a, 0x25,
  0x58, 0x21, 0x19, 0xbe, 0xf6, 0x1a, 0xcb, 0x26, 0x6b, 0xde, 0x45, 0xec,
  0x96, 0x55, 0x32, 0x12, 0xe5, 0x93, 0xef, 0xf2, 0x5f, 0x32, 0xf3, 0x22,
  0x60, 0xed, 0x27, 0x99, 0x46, 0x1c, 0xc8, 0x1e, 0x8c, 0x49, 0x5e, 0x56,
  0x07, 0xe2, 0x5b, 0x2d, 0x25, 0xc1, 0x5d, 0x79, 0xd2, 0xd1, 0x65, 0x9b,
  0xb3, 0xed, 0xed, 0xe7, 0x21, 0xf2, 0x8a, 0x29, 0xca, 0x12, 0x33, 0xf0,
  0x64, 0x1c, 0xc2, 0xa6, 0xc9, 0xf9, 0xae, 0x60, 0xe7, 0x49, 0x3e, 0xca,
  0x56, 0x75, 0xd7, 0xd1, 0xf0, 0x14, 0x91, 0x94, 0x21, 0x73, 0xf9, 0x26,
  0x29, 0x8e, 0xa6, 0x37, 0x1d, 0x21, 0x29, 0x44, 0xe2, 0xf5, 0x5a, 0x1a,
  0xc8, 0xf0, 0x52, 0xc0, 0x23, 0x59, 0xe7, 0xf7, 0xb8, 0xbd, 0xa5, 0x66,
  0xf6, 0xb0, 0xdc, 0x51, 0xd7, 0xb3, 0x44, 0x50, 0x95, 0x26, 0xf9, 0x2e,
  0x6d, 0xf2, 0x1a, 0x61, 0xd2, 0x4c, 0x4e, 0x12, 0x02, 0x5c, 0x34, 0x4a,
  0x9e, 0x4f, 0xd1, 0x30, 0x4f, 0xee, 0x34, 0x2b, 0xfc, 0xc7, 0xb2, 0x74,
  0x8c, 0xf9, 0xd4, 0x73, 0xe5, 0xb9, 0xc3, 0x6f, 0x6d, 0x25, 0x99, 0x35,
  0x8c, 0x5d, 0x30, 0x4f, 0xd3, 0xb3, 0x58, 0xbe, 0x20, 0x22, 0x37, 0x44,
  0xcc, 0xa7, 0xd5, 0xf3, 0x02, 0xa7, 0xa9, 0x2b, 0x47, 0xd4, 0x36, 0xaa,
  0xbd, 0xb7, 0x93, 0xb3, 0x05, 0xa7, 0x69, 0x11, 0xfd, 0x00, 0x1f, 0x5e,
  0xe6, 0x6a, 0x2f, 0xa6, 0x42, 0x28, 0x64, 0x46, 0x56, 0x59, 0xed, 0xa1,
  0x56, 0x3a, 0x27, 0x09, 0xac, 0xc0, 0xf9, 0x0a, 0xe8, 0x9e, 0x97, 0x3e,
  0x3f, 0xdf, 0x27, 0xe4, 0x27, 0x90, 0xa2, 0xe0, 0xca, 0xc6, 0x70, 0x8e,
  0xb3, 0x3a, 0x8d, 0x3b, 0xb7, 0xf9, 0x91, 0x2f, 0x44, 0x4f, 0xd0, 0x58,
  0x4d, 0xdb, 0x26, 0x99, 0x42, 0xd3, 0x2a, 0xe1, 0xdf, 0x62, 0x21, 0xb3,
  0x45, 0xd9, 0xa5, 0xc0, 0xe0, 0xe2, 0xcc, 0xfa, 0x9a, 0x34, 0x46, 0xd0,
  0x61, 0xef, 0x0c, 0x2e, 0xb8, 0x1b, 0xea, 0xa0, 0xc1, 0x29, 0xc3, 0x17,
  0x4a, 0x2e, 0x70, 0x8f, 0xfa, 0x93, 0xd4, 0x9d, 0x60, 0xd6, 0x46, 0x49,
  0xf5, 0x6c, 0xb4, 0x0b, 0xd1, 0x5e, 0x0f, 0x01, 0x9d, 0x11, 0xf8, 0xd7,
  0xdd, 0x5e, 0x24, 0x52, 0x55, 0x9a, 0x30, 0x01, 0x69, 0xd8, 0x59, 0xc5,
  0x68, 0xda, 0xf5, 0xcc, 0x04, 0x30, 0xeb, 0xa0, 0x75, 0x53, 0x6b, 0x01,
  0xd1, 0xdd, 0xa4, 0x2f, 0x1e, 0x04, 0xc1, 0xf7, 0xee, 0xf3, 0x55, 0xc2,
  0x9c, 0xd2, 0xf3, 0x9c, 0x27, 0xf0, 0x93, 0x60, 0x0d, 0xaf, 0x4f, 0x52,
  0xe0, 0xae, 0x56, 0x49, 0xe8, 0x6e, 0xbf, 0xde, 0xba, 0x56, 0xdc, 0x5b,
  0x33, 0x17, 0x8c, 0x05, 0xc2, 0xf8, 0xe9, 0x1e, 0xf2, 0xe4, 0x24, 0xd2,
  0xa9, 0x12, 0xca, 0xba, 0xed, 0xca, 0x6e, 0x05, 0x51, 0x66, 0x55, 0xb2,
  0xff, 0xbc, 0x9b, 0x4c, 0x24, 0x96, 0x1e, 0xd3, 0x48, 0x9e, 0x94, 0xa1,
  0xe9, 0x6c, 0xfd, 0x32, 0x73, 0x67, 0xdf, 0xf6, 0xe8, 0xb0, 0xb7, 0x33,
  0xc7, 0x98, 0x10, 0xd2, 0x31, 0xc4, 0x47, 0x9a, 0xb0, 0x11, 0xd8, 0xf8,
  0x09, 0xfa, 0x47, 0xd1, 0xf8, 0xe1, 0xa2, 0xe8, 0x3b, 0x53, 0xa9, 0x40,
  0x4b, 0x16, 0xb7, 0x49, 0xcd, 0x2c, 0x3d, 0xd1, 0xe9, 0x65, 0x1b, 0x64,
  0x52, 0x6a, 0xf7, 0xa0, 0x68, 0x35, 0x30, 0x4d, 0x8e, 0x6f, 0xbe, 0x64,
  0x95, 0x1e, 0xd6, 0xdf, 0xb2, 0x63, 0x3e, 0x09, 0xfb, 0xd1, 0xeb, 0x5d,
  0x16, 0xcf, 0x23, 0xfa, 0xf7, 0x1f, 0x9f, 0xfa, 0xd4, 0xf6, 0xe2, 0x72,
  0x24, 0x0c, 0x52, 0x44, 0xfe, 0x19, 0x06, 0x93, 0xf8, 0x67, 0x40, 0xfe,
  0x2f, 0xb3, 0xf9, 0x61, 0xfd, 0x24, 0xbc, 0x0b, 0xe2, 0xc9, 0xd8, 0x33,
  0x6c, 0x74, 0xd9, 0x8d, 0xa3, 0x02, 0x90, 0xbb, 0xde, 0xbf, 0xdf, 0xad,
  0xfd, 0x99, 0x4a, 0xae, 0xf1, 0x20, 0xdb, 0x54, 0x47, 0x2f, 0xa2, 0xf1,
  0x13, 0xd7, 0x3e, 0xad, 0x25, 0xc2, 0x60, 0xc1, 0x95, 0xc2, 0x48, 0xc2,
  0x6e, 0x1f, 0x61, 0xbd, 0x4c, 0x18, 0x68, 0x0a, 0x9d, 0x1f, 0x9e, 0x9f,
  0x3c, 0x74, 0xc7, 0x23, 0xc4, 0x9e, 0xef, 0x38, 0xe6, 0xea, 0x15, 0x22,
  0x0c, 0x4f, 0xea, 0xc9, 0xd8, 0x3a, 0x4d, 0xe8, 0x18, 0xd0, 0x0a, 0xe0,
  0x90, 0xea, 0x4b, 0x36, 0x9e, 0x41, 0x9c, 0xa7, 0xc1, 0x44, 0x4a, 0x3c,
  0xe3, 0x32, 0x04, 0x33, 0x60, 0x0f, 0x13, 0x53, 0x24, 0x9d, 0x4a, 0x96,
  0x9d, 0xfb, 0x25, 0xbe, 0x66, 0x9b, 0x3a, 0x8d, 0x3c, 0x13, 0xc7, 0xb1,
  0x37, 0xec, 0x66, 0xf0, 0x5d, 0xf4, 0xc2, 0x02, 0x1e, 0xa0, 0xc0, 0x65,
  0xba, 0xe7, 0xf8, 0x08, 0xc7, 0xe6, 0x59, 0xe7, 0x65, 0x42, 0xe2, 0x3b,
  0xa0, 0xaa, 0xdb, 0xf9, 0xc5, 0x09, 0x25, 0x22, 0x41, 0x0d, 0xd5, 0xc6,
  0x52, 0x1a, 0xd2, 0x5f, 0xcf, 0x2b, 0xcc, 0x16, 0xde, 0xd4, 0x27, 0x58,
  0x45, 0x8d, 0xca, 0x58, 0xa5, 0xdb, 0xee, 0x9c, 0x3b, 0x53, 0xbf, 0xa5,
  0x1f, 0x42, 0x46, 0x62, 0x19, 0x49, 0xbe, 0xc4, 0xfb, 0xbb, 0x61, 0x1f,
  0x20, 0xb7, 0x14, 0xce, 0x8d, 0x93, 0x45, 0xec, 0x9a, 0x8e, 0xd6, 0x94,
  0x17, 0x0a, 0xdd, 0xaf, 0x0a, 0xee, 0xa4, 0x12, 0x2a, 0x8d, 0x3f, 0x36,
  0x48, 0x3a, 0xa5, 0xbe, 0x68, 0xd4, 0x9c, 0xc4, 0x0b, 0x05, 0xbc, 0xde,
  0x40, 0xd2, 0x54, 0x2b, 0xa0, 0x64, 0xf4, 0x71, 0xaf, 0x49, 0x3f, 0xf7,
  0x4b, 0x1f, 0xf2, 0xcf, 0x2a, 0xc8, 0x8c, 0x6a, 0xdf, 0x47, 0x43, 0x3f,
  0xf6, 0x41, 0xfe, 0xc4, 0xf8, 0xdf, 0x65, 0x4b, 0x28, 0xb2, 0xb0, 0xd3,
  0xaa, 0x34, 0x38, 0x6e, 0xe2, 0xd5, 0xb4, 0xfe, 0xf5, 0xb7, 0x38, 0xf6,
  0x98, 0x7b, 0x78, 0x6a, 0x65, 0xe0, 0x4e, 0x9f, 0xb4, 0x0c, 0x02, 0xff,
  0x6e, 0x8a, 0x06, 0x7d, 0xd1, 0x51, 0xa5, 0x3e, 0x42, 0x5b, 0x2f, 0x69,
  0xaf, 0x41, 0x49, 0x5b, 0x1e, 0x6d, 0xcb, 0x1c, 0xf1, 0x9a, 0xeb, 0xd3,
  0x3e, 0x30, 0x52, 0xac, 0xe0, 0x3f, 0xfe, 0x31, 0x01, 0xab, 0x2e, 0x9e,
  0x45, 0xb7, 0xca, 0x24, 0x09, 0xc2, 0xff, 0xd4, 0xb3, 0xcf, 0x16, 0x16,
  0xe8, 0x49, 0x1b, 0x1e, 0x2b, 0xc8, 0xa0, 0xc1, 0x4a, 0xa2, 0x65, 0x0e,
  0xe3, 0x2a, 0x07, 0x79, 0x32, 0x12, 0xa0, 0x95, 0x05, 0xf6, 0xbc, 0x6f,
  0xd2, 0x2a, 0x46, 0x4d, 0x96, 0x63, 0xd9, 0xb9, 0x47, 0xeb, 0xbf, 0xcb,
  0xaf, 0x05, 0x31, 0x9b, 0x50, 0xf7, 0x3a, 0x1a, 0x1e, 0xe4, 0xe0, 0x2c,
  0xb4, 0x4e, 0xd5, 0x19, 0x29, 0xfd, 0x31, 0xe3, 0xf6, 0x52, 0x5b, 0xb7,
  0x1d, 0x64, 0xfd, 0xcf, 0x65, 0x17, 0xaf, 0x0c, 0x4a, 0x1e, 0xd9, 0xd8,
  0x45, 0xb1, 0xee, 0xe2, 0x3f, 0xf3, 0x0e, 0xa1, 0xd8, 0xbb, 0x6b, 0xb4,
  0xb9, 0xcf, 0xa0, 0x99, 0xe6, 0x71, 0x2d, 0x18, 0x6d, 0xf3, 0x5e, 0x9c,
  0x73, 0xe3, 0x77, 0xd2, 0x10, 0x1a, 0xd2, 0xf2, 0xfe, 0xa5, 0x2f, 0x72,
  0x21, 0xdb, 0x13, 0x3d, 0xef, 0xf9, 0x30, 0x6d, 0x5a, 0xc7, 0xb9, 0x32,
  0x0c, 0x3f, 0xbe, 0xf6, 0xf6, 0x9b, 0x40, 0xae, 0x6f, 0x4d, 0x74, 0x12,
  0x21, 0xe0, 0x51, 0x4c, 0x20, 0xa9, 0x22, 0xe9, 0x5b, 0x02, 0x38, 0x51,
  0x18, 0x8e, 0x72, 0x01, 0x45, 0x46, 0x44, 0x22, 0x6c, 0x1a, 0x57, 0xfb,
  0x55, 0x26, 0x5d, 0x60, 0xb8, 0xaf, 0x4a, 0x0c, 0xdf, 0x5c, 0x5e, 0xf2,
  0x27, 0xc5, 0x4d, 0x06, 0x56, 0x28, 0x9c, 0x0f, 0x4d, 0x88, 0xec, 0x38,
  0x4c, 0x0d, 0x65, 0x62, 0xa4, 0xb0, 0x69, 0xaa, 0xcf, 0xe3, 0xee, 0xba,
  0x21, 0x67, 0xd3, 0xe9, 0xdc, 0xe2, 0xfe, 0xcf, 0x94, 0x9f, 0xcd, 0xec,
  0x1d, 0xc5, 0xa2, 0x05, 0x06, 0xe3, 0x42, 0x2b, 0x21, 0x90, 0x56, 0xbd,
  0x9b, 0x9d, 0x55, 0xec, 0x93, 0xcc, 0xd3, 0x45, 0xfb, 0xd0, 0x41, 0x34,
  0xd4, 0x43, 0x58, 0xf8, 0xe0, 0xc9, 0xbc, 0x21, 0x6d, 0xdb, 0x6b, 0x03,
  0xf1, 0xd8, 0xfe, 0x0f, 0x3c, 0xfe, 0x9e, 0xda, 0x1d, 0x36, 0xbf, 0xf8,
  0x57, 0xf6, 0x45, 0x2e, 0x3a, 0xcb, 0x4f, 0x0d, 0x5f, 0x3d, 0xe2, 0x42,
  0x4b, 0x35, 0xf8, 0x22, 0x17, 0xc7, 0x53, 0xb7, 0x99, 0x4e, 0xc6, 0x15,
  0xd5, 0xb1, 0x29, 0xdd, 0x0c, 0x41, 0x03, 0xd6, 0xbd, 0x5d, 0x74, 0x59,
  0xc8, 0xc8, 0x62, 0x0a, 0xf6, 0xd8, 0x4c, 0xa5, 0x6d, 0xb6, 0xcc, 0x3c,
  0xeb, 0xad, 0xfe, 0x24, 0x3d, 0x15, 0xea, 0x24, 0xee, 0x67, 0x90, 0xc4,
  0xe7, 0x93, 0x3e, 0x30, 0x00, 0xd6, 0xc5, 0x94, 0xde, 0xdf, 0xff, 0x11,
  0xc4, 0x86, 0x9c, 0xf3, 0x56, 0x36, 0xe1, 0xa1, 0x40, 0xe8, 0x09, 0xba,
  0x95, 0xfe, 0x1e, 0xe0, 0x4f, 0x72, 0xa1, 0xc3, 0x64, 0x45, 0xe6, 0x76,
  0x9e, 0x66, 0xe1, 0xad, 0xc1, 0x6c, 0x6a, 0x14, 0x14, 0x1f, 0x00, 0x00,
  0x7a, 0xfd, 0xff, 0xff, 0x04, 0x00, 0x00, 0x00, 0x64, 0x00, 0x00, 0x00,
  0xff, 0xff, 0xff, 0xff, 0x00, 0x00, 0x00, 0x00, 0x00, 0x00, 0x00, 0x00,
  0x00, 0x00, 0x00, 0x00, 0xfe, 0xff, 0xff, 0xff, 0x00, 0x00, 0x00, 0x00,
  0x00, 0x00, 0x00, 0x00, 0x01, 0x00, 0x00, 0x00, 0xff, 0xff, 0xff, 0xff,
  0x00, 0x00, 0x00, 0x00, 0x00, 0x00, 0x00, 0x00, 0x00, 0x00, 0x00, 0x00,
  0x00, 0x00, 0x00, 0x00, 0x01, 0x00, 0x00, 0x00, 0x00, 0x00, 0x00, 0x00,
  0x00, 0x00, 0x00, 0x00, 0xff, 0xff, 0xff, 0xff, 0x02, 0x00, 0x00, 0x00,
  0x00, 0x00, 0x00, 0x00, 0xff, 0xff, 0xff, 0xff, 0x00, 0x00, 0x00, 0x00,
  0x00, 0x00, 0x00, 0x00, 0x00, 0x00, 0x00, 0x00, 0x02, 0x00, 0x00, 0x00,
  0x00, 0x00, 0x00, 0x00, 0xea, 0xfd, 0xff, 0xff, 0x04, 0x00, 0x00, 0x00,
  0xfa, 0x00, 0x00, 0x00, 0x29, 0xb0, 0xb5, 0x0e, 0x6c, 0x11, 0x78, 0x90,
  0xf9, 0xc9, 0x17, 0x17, 0x45, 0x7e, 0x3b, 0xa9, 0xfc, 0xe0, 0xb3, 0x1d,
  0x63, 0x97, 0x47, 0x19, 0x85, 0xc3, 0x84, 0x4a, 0x49, 0x3a, 0xd3, 0xc7,
  0x97, 0x9b, 0x14, 0xc7, 0xc6, 0x45, 0x18, 0x4c, 0x62, 0xc9, 0x25, 0xd0,
  0xdf, 0x04, 0xbf, 0x97, 0x3b, 0x78, 0xe7, 0x97, 0xfd, 0x73, 0xcb, 0xc0,
  0xd9, 0x16, 0xd3, 0xf4, 0x23, 0x37, 0xe9, 0xa2, 0xf2, 0xb4, 0x5c, 0x96,
  0x93, 0xa8, 0xc9, 0x4a, 0xf9, 0x81, 0x7a, 0x43, 0x0a, 0x67, 0x04, 0xb8,
  0x54, 0xc4, 0xcc, 0xe2, 0x50, 0x6f, 0x32, 0xb0, 0x97, 0xfb, 0xcc, 0xe7,
  0xc8, 0x73, 0x59, 0x79, 0x5f, 0xb3, 0xde, 0x28, 0xcb, 0x39, 0x90, 0xd1,
  0xa5, 0x4c, 0xd4, 0x16, 0x95, 0x43, 0x5c, 0x37, 0xea, 0x2e, 0x1b, 0x91,
  0xce, 0x68, 0x4f, 0x38, 0x93, 0xf7, 0x5e, 0xa2, 0xe2, 0xa2, 0x51, 0xb6,
  0x37, 0xe0, 0x81, 0xf9, 0x58, 0x84, 0xcd, 0x56, 0x44, 0xc9, 0x47, 0xe6,
  0xb9, 0xd8, 0x43, 0xb6, 0x07, 0x84, 0x5e, 0x46, 0xfa, 0xda, 0x62, 0x32,
  0xbe, 0xab, 0x56, 0x56, 0x0a, 0xd9, 0xe1, 0x03, 0x42, 0x2b, 0xb2, 0xd2,
  0x0a, 0xeb, 0x3f, 0xeb, 0xee, 0xd8, 0xf4, 0xde, 0x00, 0x94, 0x4c, 0xf2,
  0x5e, 0x34, 0x43, 0xf4, 0x5e, 0x63, 0x85, 0x7d, 0xdf, 0xc3, 0x78, 0x48,
  0xe0, 0x93, 0x33, 0x62, 0x09, 0x0f, 0x59, 0x0c, 0x40, 0xbb, 0xc1, 0x4c,
  0x46, 0x29, 0x3b, 0x2d, 0x5f, 0x24, 0x8b, 0xe3, 0xe0, 0x0d, 0x69, 0x16,
  0xfb, 0x8d, 0xdb, 0x67, 0xa4, 0x4d, 0xcc, 0xdc, 0x18, 0x95, 0x21, 0x45,
  0x7c, 0x31, 0xac, 0xf2, 0xfe, 0x5a, 0x6e, 0xf0, 0x0e, 0x56, 0x9b, 0xc2,
  0x36, 0xaf, 0xc5, 0x3d, 0xeb, 0xf0, 0x69, 0x03, 0x54, 0x7a, 0x84, 0x96,
  0x10, 0x2d, 0x00, 0x00, 0xf2, 0xfe, 0xff, 0xff, 0x04, 0x00, 0x00, 0x00,
  0x28, 0x00, 0x00, 0x00, 0x01, 0x00, 0x00, 0x00, 0x00, 0x00, 0x00, 0x00,
  0x00, 0x00, 0x00, 0x00, 0xff, 0xff, 0xff, 0xff, 0xf9, 0xff, 0xff, 0xff,
  0x02, 0x00, 0x00, 0x00, 0xfe, 0xff, 0xff, 0xff, 0xff, 0xff, 0xff, 0xff,
  0x01, 0x00, 0x00, 0x00, 0x00, 0x00, 0x00, 0x00, 0x26, 0xff, 0xff, 0xff,
  0x04, 0x00, 0x00, 0x00, 0x1e, 0x00, 0x00, 0x00, 0x4c, 0x0f, 0x6d, 0x9d,
  0xcf, 0x36, 0x59, 0x9b, 0x81, 0x5f, 0x43, 0x4a, 0xe8, 0xac, 0x8c, 0x0f,
  0x27, 0x9c, 0x0e, 0xe2, 0x9a, 0xe9, 0x7f, 0x02, 0x90, 0x9b, 0x97, 0xc6,
  0x75, 0x24, 0x00, 0x00, 0x52, 0xff, 0xff, 0xff, 0x04, 0x00, 0x00, 0x00,
  0x0c, 0x00, 0x00, 0x00, 0xfe, 0xff, 0xff, 0xff, 0x03, 0x00, 0x00, 0x00,
  0xfe, 0xff, 0xff, 0xff, 0x38, 0xff, 0xff, 0xff, 0x3c, 0xff, 0xff, 0xff,
  0x0f, 0x00, 0x00, 0x00, 0x4d, 0x4c, 0x49, 0x52, 0x20, 0x43, 0x6f, 0x6e,
  0x76, 0x65, 0x72, 0x74, 0x65, 0x64, 0x2e, 0x00, 0x01, 0x00, 0x00, 0x00,
  0x14, 0x00, 0x00, 0x00, 0x00, 0x00, 0x0e, 0x00, 0x18, 0x00, 0x14, 0x00,
  0x10, 0x00, 0x0c, 0x00, 0x08, 0x00, 0x04, 0x00, 0x0e, 0x00, 0x00, 0x00,
  0x14, 0x00, 0x00, 0x00, 0x1c, 0x00, 0x00, 0x00, 0x28, 0x01, 0x00, 0x00,
  0x2c, 0x01, 0x00, 0x00, 0x30, 0x01, 0x00, 0x00, 0x04, 0x00, 0x00, 0x00,
  0x6d, 0x61, 0x69, 0x6e, 0x00, 0x00, 0x00, 0x00, 0x04, 0x00, 0x00, 0x00,
  0xd0, 0x00, 0x00, 0x00, 0x88, 0x00, 0x00, 0x00, 0x50, 0x00, 0x00, 0x00,
  0x14, 0x00, 0x00, 0x00, 0x00, 0x00, 0x0e, 0x00, 0x1a, 0x00, 0x14, 0x00,
  0x10, 0x00, 0x0c, 0x00, 0x0b, 0x00, 0x04, 0x00, 0x0e, 0x00, 0x00, 0x00,
  0x1c, 0x00, 0x00, 0x00, 0x00, 0x00, 0x00, 0x09, 0x1c, 0x00, 0x00, 0x00,
  0x20, 0x00, 0x00, 0x00, 0x01, 0x00, 0x00, 0x00, 0x00, 0x00, 0x06, 0x00,
  0x08, 0x00, 0x04, 0x00, 0x06, 0x00, 0x00, 0x00, 0x00, 0x00, 0x80, 0x3f,
  0x01, 0x00, 0x00, 0x00, 0x0a, 0x00, 0x00, 0x00, 0x01, 0x00, 0x00, 0x00,
  0x09, 0x00, 0x00, 0x00, 0x96, 0xff, 0xff, 0xff, 0x14, 0x00, 0x00, 0x00,
  0x00, 0x00, 0x00, 0x08, 0x10, 0x00, 0x00, 0x00, 0x14, 0x00, 0x00, 0x00,
  0x04, 0x00, 0x04, 0x00, 0x04, 0x00, 0x00, 0x00, 0x01, 0x00, 0x00, 0x00,
  0x09, 0x00, 0x00, 0x00, 0x03, 0x00, 0x00, 0x00, 0x08, 0x00, 0x00, 0x00,
  0x02, 0x00, 0x00, 0x00, 0x01, 0x00, 0x00, 0x00, 0xca, 0xff, 0xff, 0xff,
  0x10, 0x00, 0x00, 0x00, 0x00, 0x00, 0x00, 0x08, 0x10, 0x00, 0x00, 0x00,
  0x14, 0x00, 0x00, 0x00, 0xba, 0xff, 0xff, 0xff, 0x00, 0x00, 0x00, 0x01,
  0x01, 0x00, 0x00, 0x00, 0x08, 0x00, 0x00, 0x00, 0x03, 0x00, 0x00, 0x00,
  0x07, 0x00, 0x00, 0x00, 0x04, 0x00, 0x00, 0x00, 0x03, 0x00, 0x00, 0x00,
  0x00, 0x00, 0x0e, 0x00, 0x16, 0x00, 0x00, 0x00, 0x10, 0x00, 0x0c, 0x00,
  0x0b, 0x00, 0x04, 0x00, 0x0e, 0x00, 0x00, 0x00, 0x18, 0x00, 0x00, 0x00,
  0x00, 0x00, 0x00, 0x08, 0x18, 0x00, 0x00, 0x00, 0x1c, 0x00, 0x00, 0x00,
  0x00, 0x00, 0x06, 0x00, 0x08, 0x00, 0x07, 0x00, 0x06, 0x00, 0x00, 0x00,
  0x00, 0x00, 0x00, 0x01, 0x01, 0x00, 0x00, 0x00, 0x07, 0x00, 0x00, 0x00,
  0x03, 0x00, 0x00, 0x00, 0x00, 0x00, 0x00, 0x00, 0x06, 0x00, 0x00, 0x00,
  0x05, 0x00, 0x00, 0x00, 0x01, 0x00, 0x00, 0x00, 0x0a, 0x00, 0x00, 0x00,
  0x01, 0x00, 0x00, 0x00, 0x00, 0x00, 0x00, 0x00, 0x0b, 0x00, 0x00, 0x00,
  0xf8, 0x04, 0x00, 0x00, 0x68, 0x04, 0x00, 0x00, 0xfc, 0x03, 0x00, 0x00,
  0x80, 0x03, 0x00, 0x00, 0x14, 0x03, 0x00, 0x00, 0xa0, 0x02, 0x00, 0x00,
  0x34, 0x02, 0x00, 0x00, 0x98, 0x01, 0x00, 0x00, 0xf4, 0x00, 0x00, 0x00,
  0x70, 0x00, 0x00, 0x00, 0x04, 0x00, 0x00, 0x00, 0x4a, 0xfb, 0xff, 0xff,
  0x00, 0x00, 0x00, 0x01, 0x14, 0x00, 0x00, 0x00, 0x30, 0x00, 0x00, 0x00,
  0x0b, 0x00, 0x00, 0x00, 0x00, 0x00, 0x00, 0x09, 0x44, 0x00, 0x00, 0x00,
  0x34, 0xfb, 0xff, 0xff, 0x08, 0x00, 0x00, 0x00, 0x10, 0x00, 0x00, 0x00,
  0x01, 0x00, 0x00, 0x00, 0x80, 0xff, 0xff, 0xff, 0xff, 0xff, 0xff, 0xff,
  0x01, 0x00, 0x00, 0x00, 0x00, 0x00, 0x80, 0x3b, 0x19, 0x00, 0x00, 0x00,
  0x53, 0x74, 0x61, 0x74, 0x65, 0x66, 0x75, 0x6c, 0x50, 0x61, 0x72, 0x74,
  0x69, 0x74, 0x69, 0x6f, 0x6e, 0x65, 0x64, 0x43, 0x61, 0x6c, 0x6c, 0x3a,
  0x30, 0x00, 0x00, 0x00, 0x02, 0x00, 0x00, 0x00, 0x01, 0x00, 0x00, 0x00,
  0x03, 0x00, 0x00, 0x00, 0xb2, 0xfb, 0xff, 0xff, 0x00, 0x00, 0x00, 0x01,
  0x14, 0x00, 0x00, 0x00, 0x30, 0x00, 0x00, 0x00, 0x0a, 0x00, 0x00, 0x00,
  0x00, 0x00, 0x00, 0x09, 0x5c, 0x00, 0x00, 0x00, 0x9c, 0xfb, 0xff, 0xff,
  0x08, 0x00, 0x00, 0x00, 0x10, 0x00, 0x00, 0x00, 0x01, 0x00, 0x00, 0x00,
  0x7f, 0x00, 0x00, 0x00, 0x00, 0x00, 0x00, 0x00, 0x01, 0x00, 0x00, 0x00,
  0xc5, 0x9e, 0x8d, 0x3e, 0x32, 0x00, 0x00, 0x00, 0x73, 0x65, 0x71, 0x75,
  0x65, 0x6e, 0x74, 0x69, 0x61, 0x6c, 0x2f, 0x79, 0x5f, 0x70, 0x72, 0x65,
  0x64, 0x2f, 0x4d, 0x61, 0x74, 0x4d, 0x75, 0x6c, 0x3b, 0x73, 0x65, 0x71,
  0x75, 0x65, 0x6e, 0x74, 0x69, 0x61, 0x6c, 0x2f, 0x79, 0x5f, 0x70, 0x72,
  0x65, 0x64, 0x2f, 0x42, 0x69, 0x61, 0x73, 0x41, 0x64, 0x64, 0x00, 0x00,
  0x02, 0x00, 0x00, 0x00, 0x01, 0x00, 0x00, 0x00, 0x03, 0x00, 0x00, 0x00,
  0x32, 0xfc, 0xff, 0xff, 0x00, 0x00, 0x00, 0x01, 0x14, 0x00, 0x00, 0x00,
  0x34, 0x00, 0x00, 0x00, 0x09, 0x00, 0x00, 0x00, 0x00, 0x00, 0x00, 0x09,
  0x7c, 0x00, 0x00, 0x00, 0x1c, 0xfc, 0xff, 0xff, 0x08, 0x00, 0x00, 0x00,
  0x14, 0x00, 0x00, 0x00, 0x01, 0x00, 0x00, 0x00, 0x80, 0xff, 0xff, 0xff,
  0xff, 0xff, 0xff, 0xff, 0x00, 0x00, 0x00, 0x00, 0x01, 0x00, 0x00, 0x00,
  0x68, 0x99, 0x1b, 0x3f, 0x4c, 0x00, 0x00, 0x00, 0x73, 0x65, 0x71, 0x75,
  0x65, 0x6e, 0x74, 0x69, 0x61, 0x6c, 0x2f, 0x64, 0x65, 0x6e, 0x73, 0x65,
  0x5f, 0x31, 0x2f, 0x4d, 0x61, 0x74, 0x4d, 0x75, 0x6c, 0x3b, 0x73, 0x65,
  0x71, 0x75, 0x65, 0x6e, 0x74, 0x69, 0x61, 0x6c, 0x2f, 0x64, 0x65, 0x6e,
  0x73, 0x65, 0x5f, 0x31, 0x2f, 0x52, 0x65, 0x6c, 0x75, 0x3b, 0x73, 0x65,
  0x71, 0x75, 0x65, 0x6e, 0x74, 0x69, 0x61, 0x6c, 0x2f, 0x64, 0x65, 0x6e,
  0x73, 0x65, 0x5f, 0x31, 0x2f, 0x42, 0x69, 0x61, 0x73, 0x41, 0x64, 0x64,
  0x00, 0x00, 0x00, 0x00, 0x02, 0x00, 0x00, 0x00, 0x01, 0x00, 0x00, 0x00,
  0x0a, 0x00, 0x00, 0x00, 0xd2, 0xfc, 0xff, 0xff, 0x00, 0x00, 0x00, 0x01,
  0x14, 0x00, 0x00, 0x00, 0x34, 0x00, 0x00, 0x00, 0x08, 0x00, 0x00, 0x00,
  0x00, 0x00, 0x00, 0x09, 0x74, 0x00, 0x00, 0x00, 0xbc, 0xfc, 0xff, 0xff,
  0x08, 0x00, 0x00, 0x00, 0x14, 0x00, 0x00, 0x00, 0x01, 0x00, 0x00, 0x00,
  0x80, 0xff, 0xff, 0xff, 0xff, 0xff, 0xff, 0xff, 0x00, 0x00, 0x00, 0x00,
  0x01, 0x00, 0x00, 0x00, 0x97, 0x80, 0x95, 0x3f, 0x46, 0x00, 0x00, 0x00,
  0x73, 0x65, 0x71, 0x75, 0x65, 0x6e, 0x74, 0x69, 0x61, 0x6c, 0x2f, 0x64,
  0x65, 0x6e, 0x73, 0x65, 0x2f, 0x4d, 0x61, 0x74, 0x4d, 0x75, 0x6c, 0x3b,
  0x73, 0x65, 0x71, 0x75, 0x65, 0x6e, 0x74, 0x69, 0x61, 0x6c, 0x2f, 0x64,
  0x65, 0x6e, 0x73, 0x65, 0x2f, 0x52, 0x65, 0x6c, 0x75, 0x3b, 0x73, 0x65,
  0x71, 0x75, 0x65, 0x6e, 0x74, 0x69, 0x61, 0x6c, 0x2f, 0x64, 0x65, 0x6e,
  0x73, 0x65, 0x2f, 0x42, 0x69, 0x61, 0x73, 0x41, 0x64, 0x64, 0x00, 0x00,
  0x02, 0x00, 0x00, 0x00, 0x01, 0x00, 0x00, 0x00, 0x19, 0x00, 0x00, 0x00,
  0x6a, 0xfd, 0xff, 0xff, 0x00, 0x00, 0x00, 0x01, 0x14, 0x00, 0x00, 0x00,
  0x34, 0x00, 0x00, 0x00, 0x07, 0x00, 0x00, 0x00, 0x00, 0x00, 0x00, 0x09,
  0x44, 0x00, 0x00, 0x00, 0x54, 0xfd, 0xff, 0xff, 0x08, 0x00, 0x00, 0x00,
  0x14, 0x00, 0x00, 0x00, 0x01, 0x00, 0x00, 0x00, 0x00, 0x00, 0x00, 0x00,
  0x00, 0x00, 0x00, 0x00, 0x00, 0x00, 0x00, 0x00, 0x01, 0x00, 0x00, 0x00,
  0x2f, 0xfe, 0xae, 0x3a, 0x17, 0x00, 0x00, 0x00, 0x73, 0x65, 0x71, 0x75,
  0x65, 0x6e, 0x74, 0x69, 0x61, 0x6c, 0x2f, 0x64, 0x65, 0x6e, 0x73, 0x65,
  0x2f, 0x4d, 0x61, 0x74, 0x4d, 0x75, 0x6c, 0x00, 0x02, 0x00, 0x00, 0x00,
  0x19, 0x00, 0x00, 0x00, 0xde, 0x00, 0x00, 0x00, 0xd2, 0xfd, 0xff, 0xff,
  0x00, 0x00, 0x00, 0x01, 0x14, 0x00, 0x00, 0x00, 0x30, 0x00, 0x00, 0x00,
  0x06, 0x00, 0x00, 0x00, 0x00, 0x00, 0x00, 0x02, 0x50, 0x00, 0x00, 0x00,
  0xbc, 0xfd, 0xff, 0xff, 0x08, 0x00, 0x00, 0x00, 0x10, 0x00, 0x00, 0x00,
  0x01, 0x00, 0x00, 0x00, 0x00, 0x00, 0x00, 0x00, 0x00, 0x00, 0x00, 0x00,
  0x01, 0x00, 0x00, 0x00, 0xe5, 0x0e, 0xae, 0x3b, 0x27, 0x00, 0x00, 0x00,
  0x73, 0x65, 0x71, 0x75, 0x65, 0x6e, 0x74, 0x69, 0x61, 0x6c, 0x2f, 0x64,
  0x65, 0x6e, 0x73, 0x65, 0x2f, 0x42, 0x69, 0x61, 0x73, 0x41, 0x64, 0x64,
  0x2f, 0x52, 0x65, 0x61, 0x64, 0x56, 0x61, 0x72, 0x69, 0x61, 0x62, 0x6c,
  0x65, 0x4f, 0x70, 0x00, 0x01, 0x00, 0x00, 0x00, 0x19, 0x00, 0x00, 0x00,
  0x42, 0xfe, 0xff, 0xff, 0x00, 0x00, 0x00, 0x01, 0x14, 0x00, 0x00, 0x00,
  0x30, 0x00, 0x00, 0x00, 0x05, 0x00, 0x00, 0x00, 0x00, 0x00, 0x00, 0x09,
  0x44, 0x00, 0x00, 0x00, 0x2c, 0xfe, 0xff, 0xff, 0x08, 0x00, 0x00, 0x00,
  0x10, 0x00, 0x00, 0x00, 0x01, 0x00, 0x00, 0x00, 0x00, 0x00, 0x00, 0x00,
  0x00, 0x00, 0x00, 0x00, 0x01, 0x00, 0x00, 0x00, 0x92, 0x47, 0x55, 0x3b,
  0x19, 0x00, 0x00, 0x00, 0x73, 0x65, 0x71, 0x75, 0x65, 0x6e, 0x74, 0x69,
  0x61, 0x6c, 0x2f, 0x64, 0x65, 0x6e, 0x73, 0x65, 0x5f, 0x31, 0x2f, 0x4d,
  0x61, 0x74, 0x4d, 0x75, 0x6c, 0x00, 0x00, 0x00, 0x02, 0x00, 0x00, 0x00,
  0x0a, 0x00, 0x00, 0x00, 0x19, 0x00, 0x00, 0x00, 0xaa, 0xfe, 0xff, 0xff,
  0x00, 0x00, 0x00, 0x01, 0x14, 0x00, 0x00, 0x00, 0x34, 0x00, 0x00, 0x00,
  0x04, 0x00, 0x00, 0x00, 0x00, 0x00, 0x00, 0x02, 0x58, 0x00, 0x00, 0x00,
  0x94, 0xfe, 0xff, 0xff, 0x08, 0x00, 0x00, 0x00, 0x14, 0x00, 0x00, 0x00,
  0x01, 0x00, 0x00, 0x00, 0x00, 0x00, 0x00, 0x00, 0x00, 0x00, 0x00, 0x00,
  0x00, 0x00, 0x00, 0x00, 0x01, 0x00, 0x00, 0x00, 0x93, 0x1b, 0x79, 0x3b,
  0x29, 0x00, 0x00, 0x00, 0x73, 0x65, 0x71, 0x75, 0x65, 0x6e, 0x74, 0x69,
  0x61, 0x6c, 0x2f, 0x64, 0x65, 0x6e, 0x73, 0x65, 0x5f, 0x31, 0x2f, 0x42,
  0x69, 0x61, 0x73, 0x41, 0x64, 0x64, 0x2f, 0x52, 0x65, 0x61, 0x64, 0x56,
  0x61, 0x72, 0x69, 0x61, 0x62, 0x6c, 0x65, 0x4f, 0x70, 0x00, 0x00, 0x00,
  0x01, 0x00, 0x00, 0x00, 0x0a, 0x00, 0x00, 0x00, 0x22, 0xff, 0xff, 0xff,
  0x00, 0x00, 0x00, 0x01, 0x14, 0x00, 0x00, 0x00, 0x30, 0x00, 0x00, 0x00,
  0x03, 0x00, 0x00, 0x00, 0x00, 0x00, 0x00, 0x09, 0x44, 0x00, 0x00, 0x00,
  0x0c, 0xff, 0xff, 0xff, 0x08, 0x00, 0x00, 0x00, 0x10, 0x00, 0x00, 0x00,
  0x01, 0x00, 0x00, 0x00, 0x00, 0x00, 0x00, 0x00, 0x00, 0x00, 0x00, 0x00,
  0x01, 0x00, 0x00, 0x00, 0xfe, 0x68, 0xab, 0x3b, 0x18, 0x00, 0x00, 0x00,
  0x73, 0x65, 0x71, 0x75, 0x65, 0x6e, 0x74, 0x69, 0x61, 0x6c, 0x2f, 0x79,
  0x5f, 0x70, 0x72, 0x65, 0x64, 0x2f, 0x4d, 0x61, 0x74, 0x4d, 0x75, 0x6c,
  0x00, 0x00, 0x00, 0x00, 0x02, 0x00, 0x00, 0x00, 0x03, 0x00, 0x00, 0x00,
  0x0a, 0x00, 0x00, 0x00, 0x8a, 0xff, 0xff, 0xff, 0x00, 0x00, 0x00, 0x01,
  0x14, 0x00, 0x00, 0x00, 0x30, 0x00, 0x00, 0x00, 0x02, 0x00, 0x00, 0x00,
  0x00, 0x00, 0x00, 0x02, 0x54, 0x00, 0x00, 0x00, 0x74, 0xff, 0xff, 0xff,
  0x08, 0x00, 0x00, 0x00, 0x10, 0x00, 0x00, 0x00, 0x01, 0x00, 0x00, 0x00,
  0x00, 0x00, 0x00, 0x00, 0x00, 0x00, 0x00, 0x00, 0x01, 0x00, 0x00, 0x00,
  0x92, 0x5e, 0x50, 0x3b, 0x28, 0x00, 0x00, 0x00, 0x73, 0x65, 0x71, 0x75,
  0x65, 0x6e, 0x74, 0x69, 0x61, 0x6c, 0x2f, 0x79, 0x5f, 0x70, 0x72, 0x65,
  0x64, 0x2f, 0x42, 0x69, 0x61, 0x73, 0x41, 0x64, 0x64, 0x2f, 0x52, 0x65,
  0x61, 0x64, 0x56, 0x61, 0x72, 0x69, 0x61, 0x62, 0x6c, 0x65, 0x4f, 0x70,
  0x00, 0x00, 0x00, 0x00, 0x01, 0x00, 0x00, 0x00, 0x03, 0x00, 0x00, 0x00,
  0x00, 0x00, 0x16, 0x00, 0x1c, 0x00, 0x18, 0x00, 0x17, 0x00, 0x10, 0x00,
  0x0c, 0x00, 0x08, 0x00, 0x00, 0x00, 0x00, 0x00, 0x00, 0x00, 0x07, 0x00,
  0x16, 0x00, 0x00, 0x00, 0x00, 0x00, 0x00, 0x01, 0x20, 0x00, 0x00, 0x00,
  0x40, 0x00, 0x00, 0x00, 0x01, 0x00, 0x00, 0x00, 0x00, 0x00, 0x00, 0x09,
  0x4c, 0x00, 0x00, 0x00, 0x0c, 0x00, 0x0c, 0x00, 0x00, 0x00, 0x00, 0x00,
  0x08, 0x00, 0x04, 0x00, 0x0c, 0x00, 0x00, 0x00, 0x08, 0x00, 0x00, 0x00,
  0x14, 0x00, 0x00, 0x00, 0x01, 0x00, 0x00, 0x00, 0x80, 0xff, 0xff, 0xff,
  0xff, 0xff, 0xff, 0xff, 0x00, 0x00, 0x00, 0x00, 0x01, 0x00, 0x00, 0x00,
  0xf1, 0xa1, 0x7e, 0x40, 0x13, 0x00, 0x00, 0x00, 0x73, 0x65, 0x72, 0x76,
  0x69, 0x6e, 0x67, 0x5f, 0x64, 0x65, 0x66, 0x61, 0x75, 0x6c, 0x74, 0x5f,
  0x78, 0x3a, 0x30, 0x00, 0x02, 0x00, 0x00, 0x00, 0x01, 0x00, 0x00, 0x00,
  0xde, 0x00, 0x00, 0x00, 0x02, 0x00, 0x00, 0x00, 0x24, 0x00, 0x00, 0x00,
  0x04, 0x00, 0x00, 0x00, 0xf0, 0xff, 0xff, 0xff, 0x19, 0x00, 0x00, 0x00,
  0x02, 0x00, 0x00, 0x00, 0x00, 0x00, 0x00, 0x19, 0x0c, 0x00, 0x10, 0x00,
  0x0f, 0x00, 0x00, 0x00, 0x08, 0x00, 0x04, 0x00, 0x0c, 0x00, 0x00, 0x00,
  0x09, 0x00, 0x00, 0x00, 0x04, 0x00, 0x00, 0x00, 0x00, 0x00, 0x00, 0x09
};
unsigned int tflite_learn_12_len = 8352;
#endif // _EI_CLASSIFIER_TFLITE_LEARN_12_H_
